/**
  ******************************************************************************
  * @file    network_data_params.c
  * @author  AST Embedded Analytics Research Platform
  * @date    2025-02-20T21:57:50+0300
  * @brief   AI Tool Automatic Code Generator for Embedded NN computing
  ******************************************************************************
  * Copyright (c) 2025 STMicroelectronics.
  * All rights reserved.
  *
  * This software is licensed under terms that can be found in the LICENSE file
  * in the root directory of this software component.
  * If no LICENSE file comes with this software, it is provided AS-IS.
  ******************************************************************************
  */

#include "network_data_params.h"


/**  Activations Section  ****************************************************/
ai_handle g_network_activations_table[1 + 2] = {
  AI_HANDLE_PTR(AI_MAGIC_MARKER),
  AI_HANDLE_PTR(NULL),
  AI_HANDLE_PTR(AI_MAGIC_MARKER),
};




/**  Weights Section  ********************************************************/
AI_ALIGNED(32)
const ai_u64 s_network_weights_array_u64[35539] = {
  0xbdfad740bdd71b8cU, 0x3db14488bd7be3aaU, 0xbd3e31753cc2ca72U, 0x3dce4542bcf3af7eU,
  0x3d9f924ebdc68f5fU, 0xbe0f2360bb9f059dU, 0x3db1c34c3dff5372U, 0x3de3bf853dc63c78U,
  0xbb83b72bbe0e032bU, 0x3d0cbf52bd429be3U, 0x3db1ac5b3e0846c3U, 0x3dc51721be1b63a3U,
  0x3b54c28ebe1da01fU, 0xbe05e1c1bdf80778U, 0xbe2fb4383e0a1727U, 0xbd9a8132bd0a0bebU,
  0x3d9deaca3e141801U, 0x3dcd3a20bd0699aeU, 0x3e042c05bc4351deU, 0xbd40ce153dbd8cbcU,
  0x3d1965483db4b5caU, 0xbd697241bce0c525U, 0x3e335b7e3dee2214U, 0xbc897009bddf33c7U,
  0xbe1b70453dbdc78cU, 0x3dff35d43d8b56c3U, 0xbd13f01abddd8365U, 0x3d97248b3d2d425bU,
  0x3b0684ab3d7a1af1U, 0xbdaa61353da3ac5dU, 0xbe1aee77bda4f51cU, 0x3c1a15043d2f6c6bU,
  0xbe1995633df6a3f8U, 0xbd15e3ffbdaba7e4U, 0x3c35c003be1d1ea5U, 0xbcbf855fbe038eecU,
  0x3e2e7fad3dbb7c08U, 0x3c6fb66cbc8147c7U, 0x3e05ce49be24edffU, 0xbe1b9441bdbd64c6U,
  0xbd64b2c7bd9d7681U, 0xbc800aa8bd826060U, 0xbde9374b3d359826U, 0x3d834beebdcef93dU,
  0x3bc4ddf93e0d47edU, 0x3def77e43e2053ccU, 0xbe13c9793db18d5fU, 0xbcdb89bd3e0b7207U,
  0x3d676741bc753bd9U, 0x3de323a93dc241e1U, 0xbe1c90b43cb51eebU, 0xbd6912debc8d2cd1U,
  0xbdcc3bcb3e19f494U, 0x3e25430dbd25a681U, 0xbde2fa91bdf2dc79U, 0x3dd73b9ebd19113eU,
  0x3d82dd42be24df43U, 0x3dc35961bda50d01U, 0xbe16ece2bd11e345U, 0xbe1e5e813dea09e2U,
  0xbe16cd0d3dbdc607U, 0xbda4bc513d7e9c67U, 0x3ddde8d8bd428f2bU, 0x3ddf22bd3d6b5088U,
  0xbe05050c3e27abdfU, 0xbdffe49abe23e33eU, 0x3e21737a3bd4d1b9U, 0x3dd0a692bda1f0a3U,
  0xba13e2e13e04484cU, 0xbe13502a3d2716d1U, 0x3d7ec820bdbccb52U, 0xbd5b53a2be079a2aU,
  0xbd590b6a3e136837U, 0xbe1690673c640be3U, 0xbcbd6e48bbbda264U, 0xbb971873bddf080dU,
  0xbdc622e93d20878eU, 0x3d977877398abcc5U, 0xbd87be243c54a308U, 0xbbe7b3f53d7e2162U,
  0x3da75225bdf38bceU, 0x3e057499bd3f5cfaU, 0x3c8f4a3fbe1fcb85U, 0xbd6322ec3d763d6fU,
  0x3c98af15bd9a3cdaU, 0x3c5e9dc03e0c2587U, 0x3dd420293d70533fU, 0x3dffdc043e1e88e4U,
  0xbdcc28b7be06e092U, 0x3c64aa833c3d7fe0U, 0x3e04e3c83e2babf8U, 0x3dcf8fff3dd95ab6U,
  0xbce3d25d3d025f90U, 0xbe0dc6173d1fffecU, 0xbe11532cbe276b13U, 0xbd30cfba3e2b0389U,
  0xbdb24f013d0b43baU, 0x3d25896abda65925U, 0xbe0120693e06d358U, 0xbe322c4e3d906926U,
  0xbe18741e3da97741U, 0xbe074e0e3e0fd283U, 0xbdb86d173ab1fd81U, 0xbd3bb74dbcee29f6U,
  0x3e0435c03bba6560U, 0x3dcaa089bda4df0bU, 0x3e2cb3c1be249a20U, 0x3e1cb91d3cb9e24bU,
  0xbcecf044be32392cU, 0xbde1d9f8be126cbeU, 0x3e12fd363e2ec83dU, 0xbd85b6b9be36bf85U,
  0xbdc626f4bd91980eU, 0xbd7137c53dd29c98U, 0x3e206dafbcd5463dU, 0x3e19d972bde665e0U,
  0xbd7f204b3dece26eU, 0xbe17d137bd4167ffU, 0x3e118f2b3bd5afafU, 0x3de2c4f4be08bd22U,
  0x3dcb7ff33c8120f8U, 0xbc2138f3bd48bb6aU, 0xbe15a84d3d269ae5U, 0xbd23a6c43d64ce8eU,
  0xbda33dbe3e06913eU, 0x3e130bd53b576fa3U, 0x3e241836bd53f3ecU, 0x3d6ea7c33dee9f1dU,
  0x3e0649963b3e9b3cU, 0x3bb88cafbc2e2f68U, 0x3e1dc33ebd533f81U, 0xbdca4bb7bd8e7b34U,
  0xbdc8886a3aa878afU, 0xbd0106c13da0bdc1U, 0xbda3a05abde0f5bdU, 0xbd94c6ad3dd84fc7U,
  0x3bbc007bbdc27806U, 0xbdbc9ffebdbdd801U, 0x3cb05e973d9c42e7U, 0x3db560143dde1b22U,
  0x3ce65c17bdcf7ddaU, 0xbc94f5e83d4ec445U, 0xbdb62f9abe0725a1U, 0x3e1a038e3de7a999U,
  0xbdb23375bdfeb34aU, 0xbc12b99dbe15f580U, 0x3dd880453de5375bU, 0xbcd72c96bd1e0108U,
  0x3e0256f9be01de1cU, 0x3e5ace583dc7661bU, 0x3dd06f0f3c98d0f3U, 0x3db525debced2139U,
  0x3c0d8d70be056992U, 0x3d27fc303dfec616U, 0x3d9f88fabd7cd946U, 0xbdd79aecbd9a39f2U,
  0xbd95a2dc3de9845cU, 0x3dafd20e3d244a08U, 0xbd739c10bd2cfda5U, 0xbe0cec09bd209a81U,
  0xbd8cb4de3be43a22U, 0x3de018f33e35a56cU, 0x3cc33cbebcd0b772U, 0xbd66d48cbc9a70a7U,
  0xbc5b6f2dbdcfb096U, 0xbe37180e3dba4b61U, 0xbdf75e46bdffe549U, 0x3d8054b6be03d4c6U,
  0x3c5aacf63de05450U, 0x3df810b43d790be8U, 0x3ca72039be09b357U, 0x3d4e1f98bdb288e8U,
  0x3b9aeadabda7ad47U, 0x3deb6af1bdaf8f84U, 0x3e0bb880bd9821b5U, 0xbc4faea2be042449U,
  0xbd8174fcbda8dbc6U, 0xbd10a334be250851U, 0xbe002c09bdab3ac1U, 0xbaf0e9883da45100U,
  0xbddce5d83d19521aU, 0x3e1fb2aebdddb251U, 0x3c4cfef5bd950f6dU, 0xbcb1c3873cafeb30U,
  0x3b590d16bc8e1569U, 0x3d656a4e3db1d9aeU, 0x3c35ea83bbb90f47U, 0x3d9c118e3ce453b0U,
  0xbe0b2f28bdfdc452U, 0xbd675c403d44072cU, 0xbdd077dcbd3a7f5fU, 0xbd73b3933de8c2f1U,
  0x3dc0f5d1be26b7e9U, 0xbe288a44bd8997c8U, 0xbda20f253ca60917U, 0xbc6af742bdbbde57U,
  0xbd8a30253e189ca0U, 0xbcac37433c72373aU, 0xbe1d955a3dadd273U, 0x3d5805cc3d8a032bU,
  0x3b7380dc3df0b2eeU, 0x3e07955bbe110495U, 0x3c9d2f7abdb2af24U, 0x3da62a59be1901dcU,
  0x3d83bdda3d34320aU, 0xbe2ea8393bf7cb2aU, 0xbddcf85c3dd3bbd6U, 0x3d81390abc18ff4eU,
  0x3da98adb3df4d779U, 0xbd0564363db6c6e1U, 0xbd5418fa3d69e044U, 0x3e06fd34bc7b6815U,
  0x3dd205f23e1dfe5bU, 0xbde1fd243d590086U, 0xbdc499c23dda9365U, 0xbdcdc4b23d44c898U,
  0x3d3019efbe5656c0U, 0xbe09f6a8bce38b8aU, 0x3c265165bd18356eU, 0xbe08a7603d99c5f0U,
  0x3df7c5fabcf756a1U, 0x3ddbe7c83e3191f6U, 0x3e06dce2bcfcfc86U, 0x3e30e792bd7207e8U,
  0xbd8fb9523e1821baU, 0x3bfa35febe1ee091U, 0xbcbd7062bda7d7c1U, 0xbd181376bc3901adU,
  0xbe13097dbd836655U, 0xbdee16373e2c3c0aU, 0xbda2a277be3a9552U, 0x3d8e97b5bdcced5bU,
  0x3dbe8b81bd4df8e5U, 0x3dfe15cabd28b5b6U, 0xbdb7c67a3d39072bU, 0x3c70446abdbaedf0U,
  0x3dbe04403c98ac09U, 0xbe209f463d7625a1U, 0xbdc3aae73ddecb5cU, 0xbd101198be3d70c1U,
  0xbdefce413d8f3de5U, 0x3c023f51bddfed44U, 0xbc20762b3da20625U, 0xbd0ff6073c59e85dU,
  0x3cf51443bd352b40U, 0xbba8b34b3d15c36bU, 0xbd2b3bb1bdd9edbeU, 0x3dc32c30be0e3b96U,
  0xbe07785fbdb3d629U, 0x3aae3a313e1b040cU, 0x3d5415e03ded9354U, 0xbe29e73c3ce6ba3fU,
  0x3ddcdd5e3dcb3923U, 0x3df3637c3deb0b78U, 0xbda93038bde80f4cU, 0x3af5955dbe3bce0fU,
  0xbdfcf7a0bba13251U, 0x3e13ca903de6cfb5U, 0x3de07aafbd8b3caaU, 0x3c1051eabe23573fU,
  0x3dd6316abe07dc42U, 0xbdc87a1abd6bdf90U, 0x3d9d9b963d35c2e0U, 0x3be4e3ba3e043e32U,
  0xbd6a979bbe36b1ffU, 0x3da26e7b3db6f901U, 0xbd65b5ea3e023cabU, 0x3caa02763d2ffa74U,
  0x3d8496d23d2cc304U, 0xbe093bdf3d619d42U, 0x3df8772b3c22659eU, 0xbc54a9a7bdf8be35U,
  0xbe3f32a33e077657U, 0x3daaa0e93d98d59aU, 0x3d7aa4f13e175961U, 0x3db6c4a6bdffa168U,
  0x3d7cf5283e100bf6U, 0x3dbe333d3e0841a0U, 0xbca50d09be093cf4U, 0x3e1713703e24ff6fU,
  0xbe039f76be288ad8U, 0xbe3f721d3dbc31f8U, 0x3c6780623d230d03U, 0xbd51efc8bdae42b3U,
  0x3df47c663e03ee3eU, 0xbe14aaf23d940820U, 0xbd8b57df3d3e330eU, 0xbc21fa6bbd78d39dU,
  0xbe21ad22be17d06cU, 0x3dbef7453dcc2edeU, 0xbd219dd0bdfde3ccU, 0xbd2f6994bcd5e378U,
  0xbdd47d2cbe367810U, 0x3bc3b724bce8e440U, 0xbd827b763e053b7bU, 0xbe0361fbbe0303d4U,
  0x3e0c6a7a3ddfffa9U, 0x3e0e4af6bcfc6ea3U, 0xbe1fd3fa3e288cbdU, 0x3e2976be3da17995U,
  0xbd8e5846bd8efbf2U, 0x3e0a5b483d5d34abU, 0x3d3f0c95be173d20U, 0xbdd9d6743d7c385eU,
  0xbdddc8143e09fe87U, 0xbdd5aaf23ddb4a34U, 0x3d35b770bc83ba24U, 0x3e208968bd74d04aU,
  0x3dc324bb3d717181U, 0x3e00d9ccbde32b88U, 0x3c6968c8be183665U, 0xbbb17c693d50b1ecU,
  0x3e0fc3e0bcd3ff1aU, 0xbe1ccc5bbdcdafecU, 0xbd08a83fbdf437fbU, 0xbdc9e400be504ab5U,
  0x3cfa1b9b3df9af61U, 0x3d84197f39c2b19cU, 0x3d9d70623c16cb36U, 0x3dc8d8b03d99bfb3U,
  0xbd33a1aabda8b149U, 0xbca01a85be151be3U, 0x3d04e350be1476d0U, 0xbded7b3a3d54b1c6U,
  0x3e20d2d63db194bdU, 0xbd46dcae3cda47b5U, 0xbe0269bcbe286457U, 0xbe1ace3abe200918U,
  0xbbf9e618bd82f109U, 0x3ce53efabe27abeeU, 0x3db84ecabd08281bU, 0x3da865babdee8d4eU,
  0xbdcfc8793d79588aU, 0x3ce8ad05bdad2c4eU, 0x3e2685abbd1642b1U, 0x3da420e23dfc25c8U,
  0x3dd5561a3d5555b5U, 0xbd86b1cbbdbce620U, 0xbd14545b3dddd5eeU, 0xbc4795febd49a862U,
  0xbb9d4637bdd6e9cfU, 0xbe0fb5aebe1847e4U, 0xbd2161e7bc62ae74U, 0xbddc177c3dda1d52U,
  0xbd717ec53c40d354U, 0x3d6fc3c73e09df04U, 0x3d6144493d8abfeeU, 0x3d1fcf58bb3dbe51U,
  0x3dbea32a3d637d2dU, 0xbe2dd399be2069f0U, 0x3e1e95e5be0e1f4bU, 0x3cba08b83ce18891U,
  0xbd917b063b885f59U, 0x3d1f7ebabde35f9eU, 0xbd0416be3e2f74c7U, 0xbe29378ebc8498deU,
  0x3cb2973e3dce538dU, 0xbdf041f33dd65fa9U, 0xbda1f19fbe25a87bU, 0xbdcc1de8be12ffd2U,
  0x3d8d9c68bd51fdb2U, 0x3dba4a4ebdd553b0U, 0x3df683e13d90e8a5U, 0xbd73c1853d9f663fU,
  0x3e2fe5853d51ceedU, 0x3dc03588bd92f2e7U, 0xbe26100d3d8b9a39U, 0xbd6047413cea9d62U,
  0xbdd643353d0e7fa1U, 0xbe3e89203d9668a4U, 0xbdb6552f3d3e8498U, 0x3d82cc05bd0156feU,
  0xbe353c10bdc3d992U, 0x3e07efbebd30f8a1U, 0xbda2656ebcc61490U, 0xbe0db05f3c6a5dfdU,
  0xbce055c33def27b5U, 0xbe0145583d531546U, 0xbda078cabdea6f2dU, 0x3de1e0553dea7a17U,
  0xbe0f028c3daf6bf1U, 0x3e0ae63b3dd1cd66U, 0x3d15a1b23d4b3a90U, 0xbde8d47a3d8f9e52U,
  0x3e0cdc4c3e1c5365U, 0xbc4a66c3bc2b5b55U, 0x3b60ed55bd942798U, 0xbe2485373d85f91dU,
  0xbd78035ebe1c7507U, 0x3d2e886fbdd47bafU, 0xbc914f483e05a993U, 0xbb2520663d83091bU,
  0x3d01056f3d2c7b0aU, 0x3dc5220c3cbd31afU, 0x3e3b8daf3d957ff9U, 0xbd20f35fbe15ffd1U,
  0xbd0911373db9bffaU, 0xbdd349b1be0ad342U, 0xbdff1aaabd9fdd82U, 0x3e21a4e1be066e1dU,
  0xbe14c9b9bd6eb149U, 0x3bdc7f62bd6e0137U, 0x3d8c70e6bd58a9caU, 0xbd3bd016be05115cU,
  0x3bf5e7b2bcfd205eU, 0x3dce4fc1be23c420U, 0x3d400a793d8f3c11U, 0xbd4f74ffbe22ee77U,
  0x3cdca7263d4ee830U, 0xbdb88de1bd96ae47U, 0x3df693cfbdb59125U, 0x3bbe47b83b800513U,
  0x3d245413bd2ed585U, 0x3d7e508cbd22c1d8U, 0x3c052e433d3ee946U, 0xbdbd147e3c63de96U,
  0x3db649ca3e21737bU, 0x3e0cacdbbd823e1aU, 0x3df8e3a9bda872c7U, 0xbe0cc00b3dd4ccb8U,
  0x3d1e94d2bdc0b1b5U, 0xbdb1fc82bce80685U, 0xbd03fd253e1d59bbU, 0xbdabd344be12534dU,
  0xbe1d2376bd349042U, 0xbe04abd1bda6e2cbU, 0xbe04492dbdb0ca4dU, 0xbe064567bde20e38U,
  0x3e222b28be180e8cU, 0xbdfcb19fbdfe8a88U, 0xbe2cb6f53ca4b109U, 0xbdf3585a3cb3c853U,
  0x3d4e0ad03cd7882eU, 0x3da3d6143d330da6U, 0xbe1af086be3a9a07U, 0xbcf4d2c5bd819432U,
  0xbe1f7f7ebd3f9cd0U, 0x3e1b62923dc38adeU, 0x3de30d813cccf7beU, 0xbd4252c9bd91bc3cU,
  0xbdbc4ab9bbc204ecU, 0xbe19df5cbe3dbad7U, 0xbda066243e1e93c3U, 0x3cd92b2d3dd0bafbU,
  0x3d455d433c28e26cU, 0x3bf210223df5267dU, 0x3dbdea09bd74dd43U, 0xbd0865fd3dcd6c27U,
  0x3d2176a23d26cf05U, 0xbb7cd82e3ca4aadeU, 0xbd4cfe223d3cf5e6U, 0xbdb020ce3dc565f3U,
  0xbe1014803df15d9fU, 0xbe189b02be0a442aU, 0xbd9a6b923adb71caU, 0x3a5966453e1ea274U,
  0x3da37ae33babb2deU, 0x3e1fbb633dd00c95U, 0xbe0b5c75bd6ac33eU, 0xbd4cf525bd46f610U,
  0x3e178f22bdfadddcU, 0xbe148ba3bc98f492U, 0x3d88dd7abda74f73U, 0x3dadbaeebca5ac8eU,
  0x3d6e68da3da14957U, 0x3daed78abdcc2713U, 0x3d34e6743dffab85U, 0xbde4cd25bdbb783fU,
  0x3b7cda353d422a15U, 0xbdba2457bdb07050U, 0xbd22b3d43d0ebc9bU, 0x3e1a7c00bd99fa14U,
  0x3e26249cbd993383U, 0xbe100075bdaca920U, 0x3db103ee3e16e055U, 0xbde846a5bdf8b4daU,
  0x3c74782a3c974785U, 0xbc9fbc123d267128U, 0x3bc4c603bcac3c50U, 0xbcf9fe5bbe08cafeU,
  0x3e08539dbdf0a753U, 0x3da1637d3cc4754eU, 0x3de91a063dbb8264U, 0xbd1a84803df6877bU,
  0x3c82fbc13c5a69b0U, 0x3dd5de223d5cd450U, 0x3e1267883d638284U, 0x3db31dfcbd8b1816U,
  0xbd82cd3a3d2f2aeeU, 0x3d9e4522bac5ea8aU, 0xbe1abb7d3dcdbd9dU, 0xbd53e0993cdc5b32U,
  0x3e03356b3c35f8a2U, 0x3e185289bdaa56d2U, 0x3dc577093df8aebaU, 0x3d8a9058bb6d6fd4U,
  0xbcc83431bd55b862U, 0xbe23809fbdb99d32U, 0xbd3ca8043d0a762eU, 0x3d0f1065be220f00U,
  0xbd19445bbd2e0e9bU, 0x3db1adbebd819feaU, 0xbc965de03e0b2ac6U, 0x3e0be237bde4e33cU,
  0x3ca592833dce7cf5U, 0xbd8d48cabe1d1a09U, 0xbdac8544bcf630a9U, 0x3d93b63f3de53672U,
  0x3e0d1464bd879e70U, 0x3e1de1d4bdcc8805U, 0x3d9e38febde30aacU, 0xbd2a13373d983ca2U,
  0xbd7362ba3d10043cU, 0x3a3d193a3e48e594U, 0x3dcc7a533cf591b3U, 0x3d41a0bdbdf45176U,
  0x3c58586b3e311d71U, 0x3d372b223d219dc9U, 0xbddb7eed3d0d332eU, 0xbd712c6c3d9b7bf6U,
  0xbce81887bda19a1eU, 0x3dafe8703da4caf7U, 0xbd3076033d3243aaU, 0x3d6813e63e1909deU,
  0xbe223b353c263f1fU, 0x3d8612c33db467e9U, 0xbc63124bbe06f717U, 0xbddded623cc1bb5aU,
  0x3df65988bbaa56c9U, 0xbd7bc1e3bdce6d88U, 0x3d9c09e03cca8022U, 0x3d96f50b3e0f0a08U,
  0xbdcad28e3d83d7f3U, 0x3d46ee5ebe0dd6f1U, 0x3c84a59bbe153457U, 0x3e1213a83df3abf9U,
  0xbdfb85afbda1ad5eU, 0x3d5ff76b3d9e6b5bU, 0xbd51edfd3d184fd9U, 0xbd67834b3e0d7d20U,
  0x3d98653fbd96abc1U, 0xbda28f38bdf0d4ebU, 0xbd1a32ddbdad0dbbU, 0xbdfb8e093e24d371U,
  0x3df24079be0571f1U, 0x3db8d787bd331ab2U, 0x3d0ad16e3e0fe245U, 0x3d870ef43d8169a7U,
  0xbdbda959bd4c0ad7U, 0x3a958af6bda29605U, 0x3e0ecba3be0c6f60U, 0x3d9d2da23db80fe0U,
  0xbd2d48013d7f3a1fU, 0xbe0a119bbe14616fU, 0x3e0da1e03d751883U, 0xbcd0f0573da8c661U,
  0x3e072a7bbd8911bdU, 0xbe05409b3c7aabfbU, 0x3da190dc3e11e8d9U, 0xbd8971f43d4465c7U,
  0xbd3b2ebfbe1265efU, 0xbb6e178bbe084dd9U, 0x3e0ccf6dbe07b2e9U, 0x3d8fdaadbdcb60a3U,
  0x3d6f5c18be1619bbU, 0x3c6652053de49338U, 0xbdb2f58d3df31bb4U, 0x3df11037bd7e22daU,
  0xbd63c8603ccfd48bU, 0x3d620364bd85df45U, 0x3e12cae93e096d1bU, 0x3dbde4f7bc00bba2U,
  0xbdd6b229bd90858eU, 0x3e10ad113d046146U, 0x3b63e7c33dadfa4eU, 0xbbe511ebbdee6dcfU,
  0xbc8bbd42bd1f9665U, 0xbb74b8bc3c1f1514U, 0xbcddcc4e3c7c6c25U, 0xbc2be2113c2dd117U,
  0xb9ac8c05bc2ad7e5U, 0x3c8c10763d529ad3U, 0x3cb1d9013aa02eeaU, 0x3b8f288e3b783209U,
  0xbd4da700bd317601U, 0xbc4bbb82bcaf9e9eU, 0xbc95b8343d145fabU, 0x3cb38d38bcb14deeU,
  0xbcc06c493b52b50aU, 0x3cfdf243bd0ed719U, 0x3cf8c784bc885d0fU, 0x3c8e828bba41bf2cU,
  0x3c4cf74a3ce3841fU, 0xbc8a8418baad4936U, 0xbca59da03c500ba3U, 0xbbf4f520bbb02a6cU,
  0x3c2f41d13bf034c2U, 0x38d54148bcdd72deU, 0x3cc5bbecbcdf4815U, 0x3ccb88cf3cef6709U,
  0xbd3bb004bc524c64U, 0xbd02a8f23cd03f46U, 0xbcf6777d3a9e403cU, 0xbbabe86cbca9c93bU,
  0x3ae301f8bca24904U, 0x387fe545bcbb7350U, 0x3d0bbac33c71e317U, 0x3c20205ebce4618fU,
  0x3d8d71e83e0b260bU, 0xb91b4a80bdbc5908U, 0xbd969415bcca46ffU, 0x3dc62298be177c0eU,
  0x3ad8a2ddbcc0cd85U, 0xbd3be530bdde68fbU, 0x3d7cdfbbbd92bb81U, 0xbdb8595fbdb4cdaaU,
  0x3c71b289bb37de67U, 0x3c2bc3c03d11a2ecU, 0xbd215954bdc7a456U, 0xbd9730a8bd8d28eeU,
  0xbd7cf322bca2cdf2U, 0x3d123f50bdec12ffU, 0xbd183a963c3ad9c9U, 0xbe130c463e0f79a8U,
  0xbe0a8c1cbdea2b79U, 0xbc6db0b43de8dcf9U, 0xbdf5c1983daf6231U, 0xbdace82dbe19cecaU,
  0x3e118186be08a2ecU, 0xbd9a9dd5bd933451U, 0xbe0dc29a3c77c54dU, 0x3e02ed5b3ce8a084U,
  0x3d7232813b80a949U, 0x3e01f52a3d9aa08fU, 0x3d5d81c7bd723da9U, 0xbe04ebd63d908ce0U,
  0x3d3c37ae3c6217a2U, 0xbd92ae39be0d22b9U, 0xbd6e115ebd985420U, 0x3c361334bd22b33cU,
  0xbd1470013b2dfd0aU, 0xbd90ee263ba026f8U, 0xbdec2040bd08d611U, 0x3ddf10b0bdb8dd2cU,
  0xbdd71b903dd9a329U, 0xbe09c6bf3cfcc509U, 0x3cb4728cbdd6adf1U, 0x3d585d6bbd20c7a2U,
  0x3dd3bcf4bdce98a3U, 0xbd9a77f9bdfe43bfU, 0x3e0889f9be20875fU, 0xbdf5d14abdf83dffU,
  0x3dbf516b3c05c987U, 0xbd240e003d35c828U, 0x3ca2ecdfbd8dbbecU, 0x3db095ce3d54715eU,
  0xbb894cd9bda54805U, 0xbe069ec93d983e29U, 0x3dced30ebd9fbce7U, 0x3d5c570a3da65e5bU,
  0xbda25a733d60fafbU, 0xbdcfde943e0d1ad3U, 0xbe31cbc3bdb3e3f2U, 0xbe16d4fbbdb65832U,
  0x3bf350573e0218f6U, 0xbd757db4bd50c37cU, 0x3dec9c85bb88dc89U, 0x3d1d2743bc81abe1U,
  0x3d5ed74bbd6f6912U, 0xbd0c16f5bd8a6888U, 0x3d41d765bca21059U, 0xbd00a3c63d253634U,
  0xbe15b503bda54722U, 0x3c8759d63d82312cU, 0xbb8a3f72bcad5180U, 0xbaaab9813e050546U,
  0x3df7b0f7bd558cb9U, 0x3da73c793bbba757U, 0x3d919a773dec6670U, 0x3d748275be1f23b2U,
  0xbd0054f53d9e073bU, 0x3d8145d9bd76278dU, 0x3dfbdc1e3dd6aed0U, 0xbd891cb1bdb9b12dU,
  0x3d4fe74f3dc8db7fU, 0xbde229273bcfe796U, 0x3dea06a03db50790U, 0xbbdd6a33bda0f508U,
  0xbe10d8ce3dd3de79U, 0x3d1fd539bdc2b2d3U, 0x3de5e7edbccf80baU, 0xbd6a428d3d04a1bfU,
  0x3ca579ebbdee6bb6U, 0x3da5ba83bbf3fc70U, 0xbdd454d8bdd4b729U, 0xbe1f3d253da10229U,
  0x3c39934cbd2e284bU, 0x3d189a243d36b8ffU, 0xbd1b40b33dafb7f0U, 0xbe070daebd444941U,
  0xbe0927293d4f855cU, 0xbda7223d3d63fff9U, 0x3d119cadbe1ea20cU, 0xbd1423013daa807fU,
  0x3dc7dc2dbd8ddb92U, 0xbdbf8c9a3dac03f7U, 0xbd4cc16b3e171d58U, 0x3e09cf72bdee9ee4U,
  0x3de914603d880998U, 0xbdab39b83e0a8a80U, 0x3d3806fc3d7330feU, 0xbe215d6d3e02059aU,
  0xbddc38353ba1175cU, 0xbd5b32e13cd5dd68U, 0x3d527b8e3d986965U, 0xbcf5227abcee0141U,
  0xbce361a43e02f912U, 0xbd6386d7bdfe5c69U, 0xbdc00803be042959U, 0x3e1bd43f3d265798U,
  0x3d0fb5c73dcf7a1eU, 0x3a9800693dfdfafdU, 0x3d4ab209bd903ea9U, 0x3e08aba63db2fa26U,
  0x3df46efc3e144138U, 0xbc85529dbd8f609eU, 0x3c68a3a63c9cf8c4U, 0xbde5c88cbdb1ca19U,
  0x3dc5464ebc536d11U, 0x3c7114513e198abfU, 0xbdee3f69bd21c5f4U, 0xbd9e5940bd55486dU,
  0x3da56ad3bd2ee718U, 0xbd922f503cbe2f89U, 0xbdc7e94f3ddc03d2U, 0xbdf55a8abdf75dd6U,
  0x3db8c923bdfb31b6U, 0xbda3a6e3bd6fe2d8U, 0x3d7d54bc3e15ae51U, 0xbcb5be073be4a654U,
  0xbd049ad5bd7990bdU, 0xbd36151bbc038712U, 0x3d645f023da78b39U, 0x3bbfdc493debe388U,
  0x3e12df163d4c4abbU, 0xbdd16084be137faeU, 0x3dc4fd483def21b6U, 0x3d629f99bd8888d9U,
  0x3de36b29bd6b9a84U, 0x3d8d6a98bccfc4f6U, 0x3e074d57bd9f4f37U, 0xbcb1011c3cadf5fdU,
  0xbd642c8e3dcca624U, 0x3cbfc3123d2ac2caU, 0xbe0e43c7bd5f60feU, 0xbda1d279bdfae23fU,
  0x3df32191bde5ba82U, 0xbbde8bce3d95063fU, 0xbdb27b563da228acU, 0xbd3e6088be102506U,
  0x3dbf93e13c3e70a4U, 0xbe02c1a23df42ac2U, 0x3a3e83c7bdc46729U, 0xbd20327abd6d21abU,
  0xbe02b95dbe0cb850U, 0x3b5bc02f3e0b4ca3U, 0xbe0d644cbe1d5b6fU, 0x3ddee7063d953f2cU,
  0xbe024ce93c5dd9efU, 0xbd2f565d3d82f94aU, 0x3d7d9c503c10b3d5U, 0xbc2c8b943db03de1U,
  0xbe1669f1bd56bdc1U, 0x3d577ca33de050edU, 0xbda794313d3d29ceU, 0xbdf92aac3e07ae5fU,
  0xbdab3b9abd5e9354U, 0xbcff43b53df3cccbU, 0x3d8011743df6ee25U, 0xbdba9c3abd81444cU,
  0xbdc95506bd022df5U, 0x3ceeafb83d8ede40U, 0x3e0fb7aabd90e34dU, 0xbcaecdea3caabdebU,
  0x3bc7d586bda3fd92U, 0x3d8b0236be13198bU, 0xbbadbfe9bd374c72U, 0x3c4e2eb43df37d5cU,
  0xbdbaaf813de7a116U, 0xbd2227493d855584U, 0x3da76292bdee1d9fU, 0x3c239157bdb5226dU,
  0xbd7a1bcdbd98416bU, 0xbdbf40f1bd8b7ea6U, 0xbe05cc94bd10b293U, 0xbcd7cdb83e097f6eU,
  0xbe1a3d50bd8926abU, 0xbd8068a5bdf11bbbU, 0x3dfeecfdbd94f2b5U, 0x3da7ecdf3d3315baU,
  0x3d125d313daff2e9U, 0x3dcb91a1bdf12b2eU, 0xbe1b8ebabdda6daeU, 0x3c9d0df23de743d5U,
  0xbdb7c7933dedbdccU, 0x3de27ffcbd999d22U, 0xbc10fa193da81eacU, 0xbcbf3fb2bd36c34dU,
  0x3d2060a6bca0de89U, 0x3d85f61d3d3ad1fdU, 0xbca83b633e067eeeU, 0xbc0ac0fcbddfb024U,
  0xbde9a31fbdbcc5c9U, 0x3dc673623d971757U, 0xbb28f0363c890b6eU, 0xbd9a454dbdcf796eU,
  0x3dbbddc13cd55321U, 0xbd7dae003d4f5fa1U, 0xbd87d50b3d06ead8U, 0xbdcd2f403d9f1c31U,
  0x3e070c70bdf649bcU, 0xbd0e85e8be0c81e9U, 0xbd9a228f3e1716d4U, 0x3daad8103dbeb74dU,
  0xbd0e5267bdd106d9U, 0xbe274c54bd81622fU, 0x3b23d76e3db70f4aU, 0x3d85d3a5bdf3bcbdU,
  0xbe1ef3bbbdfbf1fbU, 0xbda83da73d5fbf47U, 0xbdd5267d3de64328U, 0xbd932e4ebde455ddU,
  0xbcad6b603dd18523U, 0xbd214b3abd23c890U, 0xbd4517da3ddc34c5U, 0x3dddbd043e00bf0eU,
  0xb98c2f103d6f1eddU, 0x3da607b03d98d10aU, 0x3cfe0d253d1b336cU, 0xbbf131f03dfd4467U,
  0x3e0bd6b3bc89c985U, 0x3db8d6fb3dcf4569U, 0x3e0e4ed4bcce961eU, 0x3ddb2dacbd091243U,
  0xbd0d65713deec8afU, 0xbdfb99a1bdb6c9acU, 0xbca3312a3d95e122U, 0xbd826b1a3d61ccafU,
  0x3d461e03bd469609U, 0xbcda0ab3be00ade8U, 0xbd80a7143d641126U, 0xbe01271cbd8f9bdbU,
  0xbca29c583d00ea02U, 0xbd8a4cd3bcd53a7cU, 0xbdbdcc05bba04e5aU, 0x3d2b32283d81c1fdU,
  0x3ddea6c23e07ef90U, 0x3d83813bbe0134f6U, 0xbe0063bfbc8d3e54U, 0x3e063a253ac4ce9cU,
  0xbdd24765bd57af2fU, 0x3e0c59e9bdb33851U, 0x3e047d1f3da5e3f3U, 0x3e02f84cbd2ff0f1U,
  0x3dfbcfa0be08b5cdU, 0x3d947fd8bd6bd182U, 0x3d70c2663c768e32U, 0xbd477b503daee02fU,
  0xbe07e084bdcaef5eU, 0x3d96c479bd820fd9U, 0xbdb7dbfbbdc2f53eU, 0xbe214e4dbdba3138U,
  0xbda75ca63db43c35U, 0x3d3578f2bd58bcecU, 0xbd901a763d63c78cU, 0xbd1d2f0fbc86788fU,
  0x3d602cf13d32334bU, 0x3ddcd8433db3f435U, 0x3df21ac83ccc90afU, 0xbe1991f5be1b4f4cU,
  0x3cf764cdbd7481a0U, 0xbdaa4ad4bd21087dU, 0x3ca6e3493e14ac7bU, 0x3d53b3f5bddde361U,
  0xbdb10839bd9b7c72U, 0x3e005bf3be25ce70U, 0x3c202908bda6e44fU, 0xbd5a1c7e3ceed8b7U,
  0xbe3923f8bd990521U, 0xbe0890da3c9f8cb4U, 0xbd99c46bbddb0d61U, 0x3e07adc8bd8d9180U,
  0xbde43672be0db7faU, 0xbb61bde0bdbda856U, 0x3de9288d3e027c24U, 0xbdc100b33d9363c6U,
  0xbde205753dbe2978U, 0xbe072cd03e0b3fe5U, 0xbd242f78bc5899d0U, 0xbdc313223b437709U,
  0x3d515f553d8c2449U, 0x3cbdc40b3bc791d9U, 0xbded9e2abc9d2c3eU, 0xbd5441e83b24e8eeU,
  0xbd983cf23d5e7d6dU, 0xbd4353e5bdaea642U, 0x3d7c5c763e09e3bcU, 0xbd9c03633d961987U,
  0xbe0b9ae0bdd80306U, 0xbd4af9d7bd8902e9U, 0xbdb95a9ebd31f0baU, 0xbdb7f0ad3dbd1af3U,
  0x3d1ad1083c6ed2e4U, 0xbde17d233c70b420U, 0x3c7bd5683cdbc7a1U, 0xbd37f2373ddb9034U,
  0x3d0d9efb3d12f0aaU, 0xbd2fa15ebe0253bbU, 0xbc88899f3dc485f9U, 0xbd0293bc3daacc8eU,
  0xbda163dabd0eddbeU, 0xbd84c1333dbbb78eU, 0xbc924b67bdb79118U, 0x3dd77a44bcb2a2a6U,
  0xbd0fd3f13e05b555U, 0x3df114ae3d88b4c7U, 0xbcfe85c1bd3d4184U, 0xbdddc0ecbdb73eb8U,
  0x3d46d6b53dca926fU, 0xbd962519be0f7063U, 0x3d6a83bebdd3cf3dU, 0x3d02a702bd9b2b47U,
  0x3df1f1543c256e2eU, 0x3d673b0e3d30a4ffU, 0xbe1169edbe271959U, 0xbd12e83abd20adc9U,
  0x3d7e3543bd03cd54U, 0xbe15ac9f3d1a985cU, 0x3c5169c73db2d3a6U, 0xbd672d393da78ac5U,
  0xbe0bfb26bd328dafU, 0xbc75c34cbc5f2058U, 0x3db4e58cbddf8000U, 0x3e013b5c3dad4275U,
  0x3df4e1c7bbdaa5f9U, 0x3d91aad93dfbe475U, 0xbdd7081e3df98ed3U, 0x3d01866a3c0a9de9U,
  0xbde4218fbd177ffeU, 0x3dd3612d3e067084U, 0x3d926ad43e091acbU, 0xbd6ff870bd51d3d1U,
  0xbd762f333d8ea448U, 0xbcac93eebdc04a57U, 0x3d96e7f6bddf4243U, 0xbd3ac98cbde7141eU,
  0xbe1475c7bd8dd580U, 0xbdfc5926bd387993U, 0x3dd3af7abde474e9U, 0xbdb79b263dbefd98U,
  0x3d5761b43dd50447U, 0x3df0732e3de6a1a2U, 0xbdbf5c24bddf52c0U, 0x3b6b25a13e07197bU,
  0x3c8deec83de262faU, 0xbc6b888cbd5598d7U, 0x3ce197f4be0f9acfU, 0x3cbfd0d0bd90a50cU,
  0x3db4ffa83de80f90U, 0x3dcb2f7d3d3acc3cU, 0x3dadf7b23c33a1e2U, 0xbd280c10bb9f1a8aU,
  0xbdfa93693a8d77aeU, 0x3e182a793e06e58fU, 0x3d9913de3dc5123cU, 0x3daa2c033d8e27eeU,
  0x3c2ab8bf3cced293U, 0xbc21340a3db53de0U, 0xbda2913139c64610U, 0x3d87c4383d983de2U,
  0x3db62f413def7da3U, 0xbd8dc0553d8d3aaaU, 0xbe1d44713dc83abdU, 0x3db0cf173d0a675bU,
  0xbddf0cd63d52ec55U, 0x3e0edef5bda65cb6U, 0x3daa93adbdab46f2U, 0xbde38ab2bdb6a121U,
  0xbde37aad3a03a0f1U, 0xbe18db743da87454U, 0xbda91a283c34c6c1U, 0xbda359efbe15ddbaU,
  0x3d2b55aabcb685d6U, 0xbdc0ed80be15a998U, 0xbda5cd4c3e339263U, 0xbde857bb3b4226c1U,
  0xbda1b144bc3c8783U, 0xbd97c48d3bab2b07U, 0x3defcd143db8ac99U, 0x3de78e203da447bcU,
  0x3e078b3cbd650ad3U, 0x3cd01bdebb8edebaU, 0xbdcc6cd73dd8f504U, 0x3d96f27b3e144268U,
  0x3cf52734bdf633a2U, 0xbdfab54e3d9ace53U, 0xbdae7ec6bdcb78afU, 0xbe0b9d7e3a42d407U,
  0xbce0afa2bcadf78fU, 0xbdd61a933df4acd2U, 0xbd7ae326bda69b59U, 0x3c1daab83c0ee905U,
  0xbc907f433e24f4a9U, 0x3cdbfa443c3052cfU, 0x3ca8b22ebdb0782fU, 0xbe14804fbd081388U,
  0xbd92d54dbdd6c66fU, 0xbb11b47ebd8ecd6aU, 0x3db02a083d9088d6U, 0xbd2f8978bc928b26U,
  0x3bb2d4a8bc5bbc6dU, 0x3dbec8cc3e0ff929U, 0x3d33ca97bc2a06cfU, 0x3d01fd633df61617U,
  0xbc93dd3ebaa81269U, 0xbbbf90babdfc6025U, 0x3dbb65f2bd97da40U, 0x3d197835bcebc95eU,
  0xbb9970bb3e075094U, 0x3e1c78173d67abf2U, 0x3e1bd214bd2d307bU, 0xbdaa1c73bd4512e5U,
  0xbd1376223d9c716bU, 0x3db89503bdb57b34U, 0x3dc0150d3d8b4cd4U, 0xbddf72483e28b38fU,
  0xbdc91e313dcd29aeU, 0xbd8c42b13d43b411U, 0x3d6f128dbd343deaU, 0xbdfee670be16d88aU,
  0x3e1618703d82c5c1U, 0x3d19c2793de48bfdU, 0x3c88d908bdc61f5fU, 0xbe0e6278bad84fe6U,
  0x3d96a6d6bdec3329U, 0x3dbb3714be0aeccaU, 0xbdc74f24bdb77727U, 0x3dac3bc1bd885413U,
  0xbd8402a2bbb3567cU, 0xbcf08b0c3e0ab89fU, 0xbdef0b40bdebbe94U, 0x3d89144fbd11fc69U,
  0x3db21ad83ced9607U, 0x3cf1dfff3da202ceU, 0x3d18754f3d50c762U, 0xbbe98920be16b80fU,
  0xbde080a5bc333f43U, 0xbd5931653d811a22U, 0xbdb47eec3c720a84U, 0x3dd348abbcdd0edfU,
  0xbddc0132bd75df03U, 0xbde7539ebdebc524U, 0xbcf00b1d3e22caa2U, 0xbdb5aa3dbd7d004eU,
  0xbc1be77f3d7a2802U, 0xbb69a494bdfe2574U, 0xbc0b43d13c85d46cU, 0xbdf02418bd18c0a8U,
  0x3af1ecdebdc22e90U, 0x3e169efcbdd59063U, 0xbbe6e9a33d3f1a6aU, 0xbdfc54c3bcfadd8eU,
  0x3da559d7bd245b1cU, 0xbe21ffc03b7fc01aU, 0x3c557e8bbd7b6479U, 0x3dc28eb2bda608d3U,
  0xbe0221bf3d39e670U, 0xbdd96a09bda67c6aU, 0xbd1000e5be143f79U, 0x3d5ce73c3d465b25U,
  0x3da0e47e3d9457afU, 0xbd58049a3d7cb436U, 0x3e130933bd93bda3U, 0x3d1dd5d3bd051c93U,
  0xbd4f45713d790918U, 0xbd6792dc3e01ed73U, 0x3d99961bbc8a09d3U, 0x3dc28890bcd0f117U,
  0xbdf47de13bf1b78bU, 0x3e0a35813e02f566U, 0x3e04efbd3dd7c3f3U, 0xbdd6ff12bdafd176U,
  0x3dc58c7cbe132c9dU, 0x3d59ec1cbd7811b4U, 0x3d7dc2443d3bb5aeU, 0x3d076da53c972665U,
  0xbe0baf51badbf8adU, 0x3d256805bc47ed9bU, 0xbdbd470bbddb756aU, 0xbd8c4ec23d75e7f4U,
  0xbd8e020e3d333b75U, 0xbc67612abdbf6044U, 0xbcd55b36bd82b739U, 0xbdc3bdf6bc93c801U,
  0x3df42a213d4cb6b8U, 0x3e00bf7f3d055314U, 0x3dee05bebbe15e6cU, 0xbd3a76943d7a3de0U,
  0xbd2742293d59ed5fU, 0x3df6e27d3dcabd2cU, 0x3c4e7c3dbdd930a2U, 0xbd324a12be012796U,
  0x3dd8bd1fbda74ecdU, 0xbd5a9792bde7aa18U, 0xbda3ee823cbd633dU, 0x3e08f6a03ce68792U,
  0xbd18f02cbc351da7U, 0xbc340ce83dc889aeU, 0x3d2d94ef3c746e6aU, 0x3daa2b0b3dc36a86U,
  0xbd692ef1bd24b310U, 0xbdfce05d3ca0a820U, 0xbd5f31f0bcded77bU, 0x3def46a63cb40c9dU,
  0x3db034523d29f2a6U, 0xbdc88818bdfbbbd4U, 0xbd7df0adbca9e6aeU, 0xbd42066e3dcefa6eU,
  0x3d3cf5af3d96b015U, 0x3d0ad0f3bdf50649U, 0x3ce40d663dc1debeU, 0x3d4289fe3c0ff5c9U,
  0xbc48bb30be18503fU, 0x3dfda3bd3db00dccU, 0x3d8130f1bd581f2cU, 0x3d6abf84bdde94a3U,
  0xbd4a0a31bc4e840bU, 0xbe0fa6a1ba8f4258U, 0xbb0709823da97a23U, 0xbd92e3e2bdcc42adU,
  0xbdeb31453cfa5049U, 0x3e03e99ebd7becd8U, 0xbde68fbc3d9f80edU, 0xbbf64827bc33e451U,
  0xbd2be2143dbbb251U, 0xbc3919f1bce7b666U, 0xbdf5242b3da721b1U, 0xbe1e01013d7f770bU,
  0x3daefe3e3c99179eU, 0x3d4bd1593c554fc8U, 0xbe0cd0f93cbebb75U, 0x3dfb84653de148d7U,
  0x3dfaf8b8bdcc40c4U, 0x3d8e1ccb3d5509faU, 0x3cb6d53d3debfca4U, 0x3d2420a63c0d3dc9U,
  0x3da4594b3db7bc4aU, 0xbc969899be1963fcU, 0x3de762e4bdde3948U, 0x3d87d7a7bdbb883dU,
  0x3d9227c13c7264fbU, 0xbc0d3c0b3dee1101U, 0xbd046ddf3d8d8dc2U, 0x3dd83fd33d95e9ffU,
  0xbe068129be0b1d64U, 0xbda992efbd6c3d09U, 0xbd4a908f3dc9b2d1U, 0xbd4dd4e2bdc19a02U,
  0xbe251750be21d328U, 0x3c318b94be01abbfU, 0xbda14817be050c0dU, 0xbd345afc3d2463e6U,
  0x3d85676abcf24180U, 0xbdd24d76bd41b439U, 0xbd3a5d0bbcbe48afU, 0xbda17e51bdec4a80U,
  0xbcde61783c9beb39U, 0xbd0804f2bd53586fU, 0xbd7c3af8bc692a9fU, 0xbd20cd7c3bf1e7dcU,
  0xbd58d1583dc53959U, 0xbd8e88c33d803a00U, 0xbe04f5a9bddc3094U, 0xbe1aedfc3cc40cbaU,
  0xbe1852abbbd51e84U, 0xbdd7187d3db4a430U, 0x3d915838bdb52102U, 0xbd74d6413d84a527U,
  0xbd31c5293d7fde64U, 0xbdd33aac3d7fc829U, 0xbdb3c3963d4a17f9U, 0x3dcbec7d39c4e551U,
  0xbe09efaeba90a74fU, 0xbce9a5da3ba337d3U, 0xbc0974603e015aceU, 0xbe12e8a7bc71442aU,
  0xbe2488383dfd0e2dU, 0x3dccfe213bfa1c00U, 0x3d642adcbd7380d1U, 0x3dfb0ed1bd615769U,
  0x3dbe14923e1eab58U, 0xbd0911c03c418057U, 0x3d63d0ce3e05bff9U, 0xbc9f4dd63d63c914U,
  0xbd2e12743e1cf442U, 0x3d93b9ebbdcb36d8U, 0xbcae93493d916cf4U, 0xbe04c5c8bd40ef26U,
  0x3d325eea3dca21f5U, 0xbb96d85a3dd564beU, 0x3da71a483dca997bU, 0xbdb5e5bf3d32794bU,
  0xbd5845a93d494dcaU, 0xbc8b2a5cbe03bb63U, 0x3dc85193bd03fc6fU, 0x3deea0b3bcc10160U,
  0xbcb365b9bd30749dU, 0xbd7de818bcb06b41U, 0xbd9035803d87dc2bU, 0x3b93123fbdabda62U,
  0xbe0bbeb2bdd91866U, 0xbe083aff3d6c94eeU, 0x3e053601bd8feb63U, 0x3d7331da3d2f4686U,
  0xbd84dc163dcb80c0U, 0x3d4db89bbe12a86dU, 0xbc3b24d5bdefb5feU, 0xbda2ba113d4ef75bU,
  0x3dbed265be14395dU, 0x3c9b3065bda50a61U, 0x3d39df03bdb0ac27U, 0xbdcd192c3d33fdd8U,
  0x3d973cacbd787250U, 0x3def42a33df14142U, 0x3e00678cbe17f4daU, 0xbd73c48e3de64b6cU,
  0xbd096b94bc507da0U, 0xbdbc92f13a56f210U, 0xbe12e70a3dddaa43U, 0xbd1cd65bbe073330U,
  0xbe0c69463d0e62d6U, 0xbd3dc23a3b9c8e92U, 0x3c75c2f3bded9fa1U, 0xbd9110333d75845bU,
  0xbd8880d6bdc68928U, 0x3d78926dbd57b863U, 0x3d6b6670bc467fd8U, 0xbc4596fe3e04d37cU,
  0xbe0fd0d6bbd7bfecU, 0xbdcd237c3d8a394fU, 0x3e07aa463e1ee2c2U, 0xbd6bffd63d3a1288U,
  0xbe047cb4bd89b8d3U, 0xbbef7c423b5e05dcU, 0x3d09312abc3f5a4dU, 0x3b749c083bb6e7a3U,
  0x3db278b73c9ebd20U, 0x3e05bae7bd0c11b8U, 0xbded63dd3c60e70fU, 0xbdc29f4a3c651f2fU,
  0x3c9ee3863d0b6102U, 0x3dfe2cabbdc92414U, 0x3b881301bd927af6U, 0x3dd33d03bdd0d6b9U,
  0xbb443231bb80fc62U, 0x3de2e378bd549a22U, 0xbe100eb2bb1ac317U, 0x3d218437bc9586b7U,
  0x3e108a3e3db5bc3fU, 0xbdafbd973ddac3c3U, 0xbd4a4ce03ce7230aU, 0xbc2a01853dc37647U,
  0x3d8a2bd1bd01974cU, 0xb762ca1cbd70cf0cU, 0xbd3823843db68cacU, 0x3c9fb4d0bd1f4e82U,
  0xbdeecad23984a143U, 0x3ca0e41cbe0edd31U, 0x3dab29c43d925e48U, 0x3dc93290bd86d6cdU,
  0x3dc9776a3cfdf20eU, 0xbd75a5893de9a27fU, 0x3d221e31bdaae416U, 0x3d9ebc0a3d3d7888U,
  0x3d2f8c9c3dd4b9abU, 0x3db015aebb8f7a0aU, 0x3d577758be21f547U, 0xbde89aa3be12fba8U,
  0xbda2ba513d50ce2cU, 0x3c94f9fb3da3a7c7U, 0x3db7e43c3dbcf5dbU, 0xbce8cb80bdaf64b9U,
  0xbdd4d88c3de57c18U, 0x3ddd5b6f3d78340aU, 0xbc417d4a3c648fd5U, 0x3d444e84be1a2d36U,
  0xbd460647be00a0eaU, 0xbdff7fddbdfb83b4U, 0x3d40b8c3bde7b70eU, 0xbdc0c67d3d9a09b4U,
  0xbd8f3e763dba4fa9U, 0x3cc23129bd335c5fU, 0xbdd0fd503cfc9e45U, 0x3c26a4f4bdff10e7U,
  0xbd3f66f4be1907deU, 0xbdc061bdbdbb4605U, 0xbc836864bde3f28eU, 0x3df8f0713ca83e4eU,
  0x3be2a5ba3cc512b4U, 0xbdd4336c3d506d1fU, 0xbd8909e1bdefc06aU, 0xbda8717f3d657dbaU,
  0x3de392b03d12d263U, 0x3db6e82e3d4a302cU, 0x3d54decb3d728387U, 0xbd8da4cbbc120e0eU,
  0x3d7894123dbb3501U, 0x3b633176bdfc311cU, 0x3dd6d64d3dbcafa7U, 0x3e0525d53c32fe01U,
  0x3dde1a15bd472826U, 0xbde6b31abd5ecb42U, 0xbe017513bdd4f536U, 0xba4a68263d6f0a52U,
  0xbd4203ec3c393a76U, 0x3b8618a93cdcd92bU, 0x3cd85061bdccb57fU, 0x3d9643c5be18093cU,
  0x3c8e028bbc6ed75dU, 0xbd03d74d3d9d7d74U, 0x3dd516b53d776f80U, 0xbe0147ecbd5d7e8bU,
  0x3a58abd9be0ffed7U, 0x3dda294b3de68effU, 0x3dbeb3d73ddabc72U, 0xbda8d541bd81d3d3U,
  0xbc56b0053d810505U, 0x3df98288bd997490U, 0x3df637b63cb87ee0U, 0x3d3927edbdf8b0cfU,
  0x3be4be7cbda5835dU, 0xbd48f364bd63333bU, 0x3d61ca5a3d4d5123U, 0x3cf296eb3d8a0da4U,
  0x3dd382d23de5fecbU, 0xbd4994e03d18f29aU, 0x3dfe51f13cad1398U, 0xbdcabfdf3db50e2dU,
  0xbd3deee4bda17a7cU, 0x3c8878d93cefeaadU, 0x3dd73e953da13d4eU, 0x3d2dd8acbc127bb8U,
  0xbc9a68d6bdfaa5f9U, 0xbd14798cbdbab820U, 0x3ca5c8463d62b499U, 0xbd2d12bd3dd80b03U,
  0xbc7a71f33c3b306aU, 0xbd11c3923e04d946U, 0xbd40fcf43e083af1U, 0x3dc9ff223d9d10bdU,
  0x3dbb356abe19fbc8U, 0xbcbaf43d3da0e48eU, 0xbd210f42bd7ec80cU, 0x3dca7865bd749de2U,
  0x3dc375f5bd2280f9U, 0xbdb9ac9f3df07a18U, 0x3bb07e9d3d8e5ba2U, 0xbdb61beb3da52f67U,
  0x3cfe4b99be16633eU, 0xbddd9e7abe170896U, 0xbd8a805dbdfc8205U, 0x3d8ef3563dc4254dU,
  0x3dbd3bcb3d8f5558U, 0xbd476a853cb9df80U, 0x3cb1b1d0bc9e5fb7U, 0xbdc540c93df3749eU,
  0x3c1b84143e0202caU, 0xbc50256bbe0ce0b8U, 0x3dc5e66b3dbc2eb3U, 0x3d30cfd9bcadc596U,
  0xbd8364e53d1efbf2U, 0x3c9efd7abd85b156U, 0xbd699da0bdc39e37U, 0xbe10c3903ce8f25bU,
  0xbcb43db4bd347c95U, 0x3dff2cffbd6d15e7U, 0xbd9d678fbe32991bU, 0x3da3a6dfbda73c96U,
  0xbd476f643de8b4a2U, 0x3dac89f0bdade219U, 0xbe1c9f083dd12232U, 0xbde1a7973cbfc322U,
  0xbd81851a3c3135d5U, 0xbdf1750f3e05555cU, 0xbdd741483c2462e5U, 0xbd993b523ccb6df5U,
  0xbd719e79bdc0d593U, 0x3dedbbe0bd4d8294U, 0xbe19ba75bd95cd7aU, 0x3d61386dbe13c171U,
  0xbd5d6d79be009dafU, 0xbcb68b2d3dd48e4aU, 0xbd0238d2be03714aU, 0xbe18644bbd106702U,
  0x3dd38c94bdb87dffU, 0x3d875010be187894U, 0xbdfca5153db38dd5U, 0x3dd135373d99f9b2U,
  0x3dafbbc2bd4aef35U, 0xbd0ed7a3bc8c73c2U, 0x3dc3d8e2bdbf1080U, 0x3d6bd44a3dd57b4dU,
  0xbd02288dbdd1e1ddU, 0xbd7b2631be0d803eU, 0xbb862921bdeec2b8U, 0xbdc406543c074be1U,
  0x3ca67de6bdf764b8U, 0x3d4da1ac3d2038e9U, 0x3dada2203d8dcb75U, 0x3a60cfae3d101584U,
  0xbd57e330bca5bcc1U, 0x3b0692f9bd55567eU, 0xbd1ca8213df890b4U, 0x3de98250bdadd4efU,
  0xbd1871adbde4cefbU, 0x3df3f7ba3e03575cU, 0x3dbe9b923b6526b4U, 0xbbeb676bbcc268fdU,
  0x3e0edcda3da41827U, 0xbd96517ebdfd8179U, 0xbdbfd3043e0832d6U, 0xbc410d80bb766ed7U,
  0x3db5823d3d157af4U, 0xbdfb5afabd98915bU, 0x3ddfec1cbcc4aa3dU, 0xbd8bc7e73d1f6d47U,
  0x3d853ae9be0b3aa7U, 0xbc89e2dd3dd0bdf4U, 0x3d6a0f6bbdaea44cU, 0x3d1c8bc83c8de277U,
  0x3dbb12debb8b1283U, 0xbe044a983db24eb5U, 0xbd5c01563c492c7cU, 0xbc44cbf4bdcab2fbU,
  0x3d58ddcebbd26b12U, 0x3de83ec93d698f3bU, 0x3c28aaaf3e02d27dU, 0xbdf38c04bd692189U,
  0xbdb03f3f3da718dcU, 0xbd7e7eb6bd1b3799U, 0x3c546f35bd6f24faU, 0xbe28ebb33bd27f88U,
  0x3d89609bbe0da218U, 0xbd443d283dae5f94U, 0x3d8a022b3e00c247U, 0x3d7e7572bd4d3e08U,
  0xbdbe05df3d72dcfeU, 0xbd529614bd7e9c94U, 0xbd3c0fd4bd46c546U, 0x3d73cf66be0174dbU,
  0xbd21f49d3dab6233U, 0x3d003a74bccae018U, 0xbd53bf823dc6bd1fU, 0xbe2f906cbcd0bb72U,
  0xbc7545fbbc82c70bU, 0xbe1bb726bd11ececU, 0xbdb14d573da58ad9U, 0xbe0426f23d049841U,
  0xbd1870a23e0228c0U, 0xbe07ce933d8d921cU, 0xbda54eff3cc55dc2U, 0x3d4ffb84bdc77e31U,
  0x3e0701123de90520U, 0x3df2d99ebd9e2313U, 0x3d82c3363d9f19beU, 0x3d8307603dfea591U,
  0xbd3d40393d70d7e4U, 0x3de2155dbdceb803U, 0xbd11c433bdb4ffafU, 0x3d8d9b7fbdaf15a3U,
  0xbd72dddbbdbe9d29U, 0xbc48ccad3e00c6ccU, 0x3d13f226be2524fcU, 0xbd336790bcf407a3U,
  0x3df25f71be00f881U, 0x3d2915dc3d9a9471U, 0x3be3ad78bca7c3b6U, 0x3e236208be0392acU,
  0x3d8154783d62481fU, 0xbe18c6e9bd43d3adU, 0x3dc7eb423db4df7aU, 0x3de800cfbdbeb785U,
  0xbd980108be1a1b39U, 0xbd9e1b94bc4b5ea7U, 0xbdef5c75be0ff7daU, 0xbd11f897bdadf428U,
  0x3d0838bfbdc74693U, 0x3d42b0a13d25bbc6U, 0xbe17e451be011a75U, 0x3de9a9d53d9010aaU,
  0xbdde7420bd6c37e3U, 0xbdedb3143dfba755U, 0x3ce7866e3dd316a9U, 0x3deae83abd2285c9U,
  0xbb9d346a3d623b84U, 0x3d1b433e3c74410cU, 0xbcf8afda3dee7fadU, 0xbe0b1e973e0c40e1U,
  0xbdc94475bdf2e6f7U, 0xbd8e76b13b90aec0U, 0xbdcf2846be0f8e24U, 0x3d8c0384bd4b6290U,
  0xbae4b01ebe00a329U, 0xbd95eca93e05b95eU, 0xbde7ee4bbb81dab1U, 0xbe02e64ebe087124U,
  0xbd72233b3e035237U, 0xbe11091c3d937a55U, 0xbe039e85bdd4972bU, 0x3cb9562b3dd9a5f3U,
  0xbdb5bffcbddeff67U, 0xbdbb5290bd5a3da9U, 0xbd16d371bddd369bU, 0x3df73c82bda24be8U,
  0x3e084320be1a7a84U, 0xbd74021a3e11ada4U, 0x3da49d183da56819U, 0x3c0a0e1a3cb034faU,
  0xbd9d6529bd765fb2U, 0xbd5999b13d30a03fU, 0x3da0d403bce3e177U, 0xbdbf9a863e0a3140U,
  0x3c582067bd2f86e4U, 0xbcb02b753d5f959fU, 0x3dd110a6be06a076U, 0xbcd1e1423da9aa6bU,
  0xbe1995cf3dde7a29U, 0x3d99dd163e017c73U, 0xbd6dabc93df79db8U, 0x3dbfef1fbd70f7aeU,
  0x3ccac7763dbace8cU, 0x3c8de784bda94ad6U, 0xbdc465c53ca3a5ecU, 0x3e10bafc3dfdb1bfU,
  0xbcc2ee3fbd0664ebU, 0x3db0a9993d5dadd4U, 0xbdf614f5bdc58544U, 0xbd6227a73de468f4U,
  0x3cf63d58bc9b4d23U, 0x3ce6913d3ac3fd47U, 0x3d0cfccfbd977b9bU, 0xbdc4c927bdf7abc2U,
  0xbe06a045bdec52d6U, 0xbc0aa19dbc0e957aU, 0xbe08ae1abdd2128eU, 0x3cf9ee9f3d5d7739U,
  0x3daa8f7c3d8059a4U, 0x3d75a6e93d0c00bbU, 0xbd45794f3c8d8c52U, 0xbdc977773c7bc0bdU,
  0x3df1d1a4bd30f9d5U, 0x3d3d5becbd3d6900U, 0x3c7003913d36e62dU, 0xbde2f6e3bc9867bfU,
  0xbd175a46bd53fe04U, 0x3de0866f3dd48678U, 0x3d908c3cbd9b06feU, 0x3c78c2893d9fd9d2U,
  0x3dbd58073b205128U, 0x3e10c8cd3d33a6e6U, 0x3d831a313d2d000bU, 0x3e19d2053d952b33U,
  0xbd25cf823d44f57cU, 0x3e131f373da33dfdU, 0x3dff63663d5ab7eaU, 0xbdebfa973d8f1f3cU,
  0xbdada1343d2c12b0U, 0xbcf2ff9abe1bec41U, 0xbda8bb063df49db0U, 0xbd9e0ae23db733bdU,
  0xbda9338ebc6f2d51U, 0xbd6f39c1be076f13U, 0xbda5467d3b4b3f9aU, 0xbdfb9acf3d0b1849U,
  0xbde4e4f5bcd5da96U, 0x3d825a4a3de0df3cU, 0xbc450718bdb982afU, 0xbd96ee26bda40a69U,
  0xbc25544b3d759b11U, 0xbdb0abbebd727ae5U, 0x3d08b08bbe018845U, 0xbd06c395bd8c3b6bU,
  0xbdde72e23d960ba4U, 0xbb7c17753d9648b9U, 0xbca349db3e0ee40fU, 0x3dc1a06fbe00975fU,
  0xbd98b0233da96827U, 0x3d188ef13c2aa43dU, 0xbcedcf433e03e6edU, 0xbc154713bcec2d55U,
  0xbe187f903da02a2aU, 0x3cf4c5913da1a79bU, 0xbc92499cbd872332U, 0xbdecade63dd495beU,
  0x3ddb3e2abda2b74cU, 0x3d3daec83981a718U, 0x3c95a3ebbb935a59U, 0x3cb28122bcaa91b4U,
  0x3dee2c3fbda6a8a4U, 0xbe0f16fbbd30d768U, 0xbd9b5a0bbb1766f3U, 0xbd977e6abdf82702U,
  0xbe5865943cff7b55U, 0x3d3f6d32bc22cd11U, 0x3db4d13c3dcdd1a7U, 0xbe69afe3bce1cf5bU,
  0x3d579538bde7528bU, 0xbdd03e49bdcb9cabU, 0x3e0d8cf5bdb64b94U, 0x3dd8d887be0bc704U,
  0xbdf2e68dbdc41d6cU, 0x3d1250103dd0daabU, 0xbd9b63543a38aeddU, 0x3ccead74bd066223U,
  0xbd4000cabdbc01f3U, 0x3e0b9c2cbd82e61eU, 0x3df7c209bdafaeb0U, 0x3d69b12f3d283187U,
  0x3d383882bcdca7cdU, 0xbd6a3b0dbccd85eeU, 0xbd55ce3ebc62e7faU, 0xbd2de178bce27cc1U,
  0xbce8f6c93d59dcd2U, 0xbdc1233fbdd55a4bU, 0xbda64481bd287f13U, 0xbde02e67bc837a6bU,
  0x3c9b46b5be03b8f6U, 0xbc3c0832bb8ced71U, 0x3dbae9dbbda5c2f2U, 0xbd739a7a3e0a9bc3U,
  0xbd60baa03e216018U, 0x3daaf736bdf38863U, 0x3cca9cc9bd8881d9U, 0x3d51c9153e1b2a88U,
  0xbd5a3b6c3dac7bf5U, 0x3dce7dcebe07ab8cU, 0x3da7a7563d7235aeU, 0xbe2058193dcd3f32U,
  0xbdeb26c33dde2b7cU, 0x3c1800bebc4190ccU, 0xbde972c0bdb1bc05U, 0xbd845e833c99544fU,
  0xbd04cdb2bc84e4a0U, 0xbcedde9bbdbcc5dfU, 0x3ded16f93cc419e4U, 0x3dd99a45bda0aa51U,
  0xbdb4a6743d494c83U, 0xbc1239e63dafb4b2U, 0xbd450eadbda4c238U, 0x3e011a703e0892b7U,
  0xbd9765573d1d959cU, 0xbd7b10103d8ddd9fU, 0x3d39d556bd779d10U, 0xbddb49d93dc6a17eU,
  0xbde1fa7d3d82e9b6U, 0x3dffad48be13a5deU, 0xbd08c503bacb1ddfU, 0xbda175c93d274504U,
  0x3b7306ad3ca04257U, 0xbd294b4a3d94b634U, 0x3db2d8aebd5c0a1cU, 0x3e3c390f3e062f93U,
  0x3a338d6b3e2a19fcU, 0x3e2164f63dbbadbcU, 0xbd846ba7bcd967dfU, 0xbd11e89d3dac2977U,
  0x3d108af43d8ab752U, 0xbd90b327be009cc1U, 0xbde324d2bdb8ca8aU, 0xbdd85f173d90d6a3U,
  0xbcf1b6ab3d1f2f32U, 0x3e22a897bc596870U, 0x3da3db2bbe04cc72U, 0xbb350dabbda0b7e4U,
  0x3d56d79cbe232ca4U, 0x3daafcee3da8a208U, 0x3de7c5db3d9b927dU, 0xbe458035bd9fcf1dU,
  0x3d684f5a3d3c777eU, 0xbded9944bdedfd29U, 0x3d822fd3bd38585cU, 0xbdc501b8bdabebf6U,
  0x3e071563bd6a1d1cU, 0xbd282e443cf0b2e2U, 0x3d22262ebe02fa73U, 0x3c5e717dbd9f927aU,
  0xbd88c07ebca4b032U, 0xbdeea15c3cf1d65dU, 0x3de0d426bde83995U, 0x3dac61c7be2f1f28U,
  0x3dc1139b3d8e6c67U, 0xbbf7c755bd919b27U, 0xbdaf82303e0c8ccfU, 0x3de9870c3e087239U,
  0x3dda71a1bca635dcU, 0x3d4f77553e063198U, 0xbdfd7310bcccd772U, 0xbd779897bd6039a6U,
  0x3dd0457bbdb7be11U, 0x3d20cbcdbd718f38U, 0x3d8c82d43df7083aU, 0xbe038dc63bae33d0U,
  0x3c994c0cbd691ad9U, 0x3dabaa54bdb742c3U, 0xbc464424bdcae4d4U, 0xbda2e6d1be0ac431U,
  0x3cb346babddb93b1U, 0xbd418fc5bc4d67f3U, 0xbdcbbefb3c1f9fe2U, 0x3d22a12fbc8431c2U,
  0xbda418a93e141cacU, 0xbd74de413dbeb990U, 0xbdb3acf8bdcffc2dU, 0x3da231ebbc6bbbb2U,
  0xbe1a3444bbf3b23fU, 0x3d1a777dbe1760e1U, 0xbdcc41353d0050e1U, 0xbd6b3d033e015415U,
  0xbd82a38a3caea6f5U, 0x3cce9d12bdb8833fU, 0x3dcff09dbd4f7441U, 0x3df11937bda92438U,
  0xbde40e79be24e326U, 0x3d94f21abe01f48cU, 0xbc2b709dbdf90923U, 0xbd7fce9e3d840b6eU,
  0xbd6632e3bd048877U, 0xbd29cee1bde8662bU, 0xbe2846853d9844dbU, 0x3ba770b8bdaece50U,
  0xbdb88aea3c48eb74U, 0xbdd7f1ff3e081398U, 0x3df4c75b3da946d9U, 0xbdd93172bcde69faU,
  0xbde41961be15a578U, 0xbd7b7dd23d8059c4U, 0xbdaf88c53e07f411U, 0x3dacc58a3dd1c16aU,
  0xbdaebb26be1747a5U, 0xbde21876bd6551d1U, 0xbc201f0abc2a0c13U, 0xbd4db8f1bdaeedfaU,
  0xbe1e6bde3e0e3aa6U, 0x3deaed30bdb1ef05U, 0x3c7cac86bdd70ff2U, 0x3d6f84253bef0468U,
  0x3ceb90b43d189e79U, 0xbd902c9abce97dabU, 0x3e0345e0bdab070bU, 0xbc556c5c3bdb8fd5U,
  0xbdb7ab91bdd7ac60U, 0x3d96cdb5bdc0cbc2U, 0x3b4c551e3d5f1cc5U, 0xbd36aacd3dbe89a0U,
  0xbddbe77f3d81be4dU, 0xbdc25d40bd088a69U, 0xbdf84880be14bb8fU, 0x3d46c37b3d39ded1U,
  0x3dd50c7fbd03897dU, 0xbcb1df39bb2184ecU, 0x3d086c533dd3958aU, 0x3de7888abd9c699cU,
  0x3771f69ebdb515a2U, 0x3d2ec2cb3d98d186U, 0xbda6ca953e03e360U, 0x3db7b2c93db405b8U,
  0xbcb72002bdf0fb74U, 0xbe08866dbcea0031U, 0xbdcc01e0bd890ca1U, 0x3ab69eb53cf8b8ebU,
  0xbd31cc3c3da4cbfeU, 0x3ca26eb43ce96fdeU, 0xbd2aec9b3c0e425dU, 0xbdde268bbd9c1635U,
  0xbdefbe64bdb54d71U, 0x3d2db8923df10837U, 0x3e02c099bdad52afU, 0x3cd459edbdd35012U,
  0xbcc5c1773ce90b8eU, 0x3d95b0d5bcabc03aU, 0x3ca2b7b53db54461U, 0xbd0ec7fd3d4fc20aU,
  0x3dc811a83d33c6d0U, 0x3cd8150b3de2c0cbU, 0x3e05140d3d3f4e72U, 0x3ce3fc70bc0d127eU,
  0xbd86b5d0bd71e18aU, 0x3d1b774cbd78e9f6U, 0x3d224fe2bda6408eU, 0x3d9ce638be1225abU,
  0xbb2bbef1bd8131b7U, 0xbca862e7bdcf52b5U, 0x3dd00261bc0187b8U, 0x3da9f268be02173cU,
  0xbdfe89393d333397U, 0x3cd642b63dbd8446U, 0x3df3b4713bf06804U, 0xbde76e48bd9c63f6U,
  0x3bc8b88dbd0d0c0eU, 0x3d029dfe3dd55983U, 0x3dd3f38bbddd680dU, 0x3dde15423c8f842cU,
  0x3d18b68b3da98a3eU, 0x3dc3f1b8bbb7bcc8U, 0xbdc8da053adb471aU, 0xbb963d743d0bb9b7U,
  0x3d8cd234be00d52dU, 0x3dfa8dddbd7797c7U, 0xbde014d53d385fe8U, 0x3dfc2e41bd6dc479U,
  0xbe09911b3d97905fU, 0xbdef43993d47ee78U, 0x3cb37d0f3de030eeU, 0x3c83629e3c3142b4U,
  0x3d8f54b4bd68675bU, 0xbd4496a5be0dadb0U, 0xbd063e513dcb0582U, 0x3dcec1663dd62bd4U,
  0x3c571d123df66657U, 0x3dc52cdcbde0545dU, 0xbe04efe13ba93432U, 0xbe238a773d1e71c5U,
  0xbd0896503dc54dfdU, 0x3d0d961f3dd5a242U, 0xbe007868bd3c793aU, 0xbc080b703dc8b8f2U,
  0x3de462d0bdb2820bU, 0xbda9c8c7bdca6190U, 0x3d6420a7be1668fbU, 0xbd2f36e9be19ad01U,
  0xbd9e44d5bd76ae7bU, 0x3db0795fbab21a52U, 0x3b9a5e863df56e01U, 0xbdcc03203ddbd961U,
  0x3da88347be098010U, 0xbdfe32e83df3b4c1U, 0xbd81b106bdbebe49U, 0x3d6bb979bdd6400aU,
  0x3d7d7fdebe1511b1U, 0x3d4cdac83dc6f50fU, 0x3dde7fbabd3d66beU, 0x3dcdf29bbc46e8bcU,
  0x3da803473ddf08a7U, 0xbcd22c2fbdee0c02U, 0xbd6fbeeebdefd283U, 0x3dba77963dd43ba3U,
  0xbd35dd34bdc1163fU, 0x3d5513313c12080aU, 0x3d7e89183ce62c31U, 0xbd24b330bd78e7f1U,
  0xbdba4c36bcb5a54cU, 0x3c886228bc840493U, 0x3e2811433b62313bU, 0x3c7bb04cbcb45c57U,
  0xbb4043a83d339d82U, 0x3cafd332be1cde49U, 0x3dbdd3223e394f01U, 0x3d0df714bc68880dU,
  0xbdc39240bde7862aU, 0x3e26488f3dfb142dU, 0xbd86c0e6bdd9c731U, 0x3d5c1f66bd95b94dU,
  0x3d4b1f0b3d7411e5U, 0xbdaad1d6bd6ffd68U, 0xbbe8e9773d67430aU, 0x3bcba6713e31a817U,
  0x3e00f080bdc43fe2U, 0xbc844d02bdef5dcbU, 0x3d95c4243aef1708U, 0x3e162225bde7e7d5U,
  0xbdbf7ddc3de6db18U, 0xbc93faebbdf8a2f7U, 0x3d9858d6bde5f438U, 0xbe008f96bc759625U,
  0x3ac865b6bdf37232U, 0xbd196a4d3df74459U, 0x3d69f909bde57c5dU, 0xbda1d4b83dae53ebU,
  0x3d15769b3c93a258U, 0x3dfb3ba63bd37d24U, 0xbe06a6f03e04b7d8U, 0xbcc5dbe8bc2e802eU,
  0xbdf6ac063e177a15U, 0x3d2e070a3deb54bbU, 0xbd53d59abdc40b67U, 0xbe12f2e2bde2bfb7U,
  0xbd5d95423de86397U, 0xbd471453bde863feU, 0xbe1efe67bd8a3133U, 0x3d3882f7bde33891U,
  0x3d5013fd3d957b9cU, 0x3c12573dbd79fb3fU, 0xbe26a0223df02b7cU, 0x3e084080bd1f60ebU,
  0xbd86ab30bd4b6b25U, 0xbde5d77f3d74cbb6U, 0x3ddbfa11bdf4a1d9U, 0x39833e083d2b21ccU,
  0x3d27f9d8bdcf9260U, 0x3d1a290d3d4f518bU, 0xbc6add6ebd823733U, 0xbd6abd403d066393U,
  0x3d9725d7bdef2a9fU, 0xbd960c03bd20ba6dU, 0x3d6bc3883d2bac61U, 0xbde99314bd83f4adU,
  0xbddda3563de3d019U, 0xbd593127bc202bc3U, 0xbcc1c3893dd63b41U, 0x3d3ed722b96cff50U,
  0x3db0479f3cfaacb1U, 0xbc6968a73d0c14c5U, 0x3dbd2fb9bde31e08U, 0x3d33f07d3dfa0d41U,
  0x3de2d4b8be0d7ac9U, 0x3cc506e83de1cb04U, 0xbdf9652dbb3bd867U, 0x3b9b695a3b8fb8c8U,
  0x3b74dc863ddb7bcfU, 0xbc563b683db6d20cU, 0xbe0f0ecd3df8965cU, 0xbb9916bfbd2085f2U,
  0x3d8d7daa3de9a5b7U, 0xbd8570143df56870U, 0xbde573093df8841dU, 0xbd1987a93d5c3699U,
  0x3d4a4df8bdc7c6c1U, 0xbd6e86b2bd8733fcU, 0x3dc5922c3dca4ac3U, 0xbd8e69b1bdcfc191U,
  0xbdaf2d6abdf4ae20U, 0x3ca242ddbce489ccU, 0xbdf111e33da7680eU, 0xbdda7f463d9dd35dU,
  0x3d3644463d02db8aU, 0xbdc74235bd8c41f2U, 0x3dfc900dbdda19edU, 0x3defa50b3e09dba0U,
  0xbe189b58bdb30ccdU, 0xbc809ffa3c4172ceU, 0x3c3614c2bc5daa61U, 0xbbce6bcdbd82a030U,
  0xbe1c9cf53d1ba136U, 0x3d9780e6bd51cad4U, 0xbd4375143dc019f7U, 0x3d1a2863bd45b1d9U,
  0xbc9d782a3db8674fU, 0xbc7c2bd1bdd47fddU, 0xbddc7e27bddb0badU, 0x3d9aaab1bceaee9dU,
  0xbdc03406bdffcc7bU, 0xbd89fa41be0ea5c1U, 0xbd75013a3b2cc121U, 0xbd6d6cfbbd190300U,
  0x3df8ca963b95d719U, 0xbdd18a5fbd20adfaU, 0x3db04df3bd814b9fU, 0xbd467f933c50058cU,
  0x3dd1e653bbdd45c7U, 0x3de6ed263ca38e5eU, 0xbd82cd9bbd26b173U, 0xbd4d4617be0a2218U,
  0xbce53395bd926a09U, 0x3d34d6c3bd5a76c6U, 0x3da1a92cbe026649U, 0xbdb42de63e0a49ecU,
  0x3ddf7d443da2028bU, 0x3dcba70c3c809984U, 0x3cd2b27abd895368U, 0xbde39128be09b827U,
  0xbde868cc3db32c15U, 0xbd6037113d2f5469U, 0x3d7f6ea13ded8d4dU, 0x3d53777c3cb6fc7aU,
  0x3cc2dbb7ba209d7aU, 0xbd31c7fdbd0e997dU, 0x3c194fd1bcfb7e0fU, 0xbe06785a3e195be4U,
  0xbe04f7ee3da0523bU, 0xbd9905803da6c9b1U, 0xbddc227f3de390d8U, 0xbe040743bdc8baccU,
  0x3d84010d3d66fd76U, 0xbdaa42b33da3cdcfU, 0xbc9746cfbd6fb368U, 0xbd9a1d39bd89453eU,
  0x3db85ef1bda235bcU, 0x3c54ea74bd8e8e8fU, 0x3d0b08cfbc9ff343U, 0xbda65affbda245ebU,
  0x3d46e3343d9758f9U, 0xbcec7b063db12441U, 0x3c89e7283d115c13U, 0x3dfbddd2bd4686c6U,
  0xbdd1e27dbd0ad202U, 0x3d6892743cac5229U, 0x3e0671c5bdabd4d9U, 0x3e0654ec3bff7fb4U,
  0xbda11f65be0977c8U, 0xbdb025df3da83f57U, 0xbd414577bd99970eU, 0x3ca7a6d23dadf903U,
  0x3c905f37bd7b5a04U, 0xbc9dddaebe130352U, 0xbe1af5e73dd1a743U, 0x3dd7539b3d706c70U,
  0x3dbf334d3d908e5eU, 0xbded6bf73dcbd482U, 0xbddd615cbdd29487U, 0xbd3eb727bdbf488dU,
  0x3d78da653d8e7d76U, 0x3d4d28e03d7c61b8U, 0xbd339835bd68d196U, 0xbdfa9739bdaf65b4U,
  0x3ceb2f443c575cbbU, 0x3d6f9636bcf50e85U, 0x3dfdc47cbcd0a7a5U, 0xbd2e4e5e3de201ffU,
  0xbad8fd483bf23cbaU, 0xbdeeab3f3d4f4c4dU, 0xbd69bea3be1ae3a4U, 0x3d6b67403c7c8169U,
  0x3e09140cbd2a3ad9U, 0x3d920e27bde4e2f5U, 0x3d7c5a04bca550acU, 0xbd69b6383dd1dca7U,
  0x3ca9bbbf3d96ba39U, 0x3de937aabbaa25e0U, 0x3d6a69fb3df69953U, 0x3d0a7ac7bd8a968fU,
  0x3d117279bcd53c47U, 0x3db81101be0d5ca7U, 0x3dfa37743d49646dU, 0xbd5823df3c585161U,
  0x3ddcdb1abd12f541U, 0x3e0572a1bd6a3b6bU, 0x3dd47f493dbb16e5U, 0xbdfb115cbdbb5cc5U,
  0xbc3245adbe0b8bb9U, 0xbc968be83d2453a3U, 0xbd1087253dd69408U, 0xbdcdb8da3dfbc190U,
  0x3d1072073dbd5cf8U, 0xbe05e7c93da83a77U, 0xbdaeb22ebdac8c83U, 0x3dd3a2723d95c7bbU,
  0xbe1186c2be180591U, 0xbb1f25c4bdf0d104U, 0x3ddd0df93e15cc89U, 0x3d03954b3d89e29fU,
  0xbdada0b53cbb229aU, 0xbcf9702bbc93df49U, 0x3dea06873d413af9U, 0xbcee33aa3dabd49bU,
  0xbde2f221be06775bU, 0x3dc196623e067ccdU, 0x3d5b1934bd9b7262U, 0x3da8d534bd3181ffU,
  0x3d407e013d6f671eU, 0x3dc61fffbd1e9a19U, 0x3c9fa0513dfdef84U, 0xbcab43223d2d4db3U,
  0x3d568cb4bde36bb3U, 0xbd874ad4bdc3d82eU, 0x3cc43facbdb99108U, 0x3de3c387bd292987U,
  0x3dd323013c394c1aU, 0x3cdd77283daf2ad2U, 0x3dbcd3cebd810d8fU, 0xbd1fd593bc9bcfbdU,
  0xbda7dc8a3d4136d1U, 0xbe008d793dc8944fU, 0xbbbf14813d6cb036U, 0xbd2b9d443dbea400U,
  0x3dd09a55be033fbbU, 0x3dc5a3e63cf0f802U, 0x3c217548bda87d2cU, 0xbe1cf7a53dfe968aU,
  0xbdf0cad1bdff9b5dU, 0x3c6e53813cf2b26cU, 0x3d128d27bc6d87fcU, 0x3dae07433ddd1a98U,
  0xbdada1a8be09a19cU, 0x3ddc861f3d809adfU, 0xbd8b57acbdc5b644U, 0xbe17bb3dbde89453U,
  0x3e170e2cbd753666U, 0x3c7f156f3d57422dU, 0x3d15fcf23d8291a3U, 0x3dbfe42dbe1106beU,
  0x3d7786ebbdb26abdU, 0xbdccdf04bdace059U, 0x3de5442dbd71f175U, 0xbca8c412bc504e46U,
  0xbda941cabdd6eda8U, 0xbd2158e03cfd72f6U, 0x3ca7b8a4be0eea6dU, 0x3bb578123d49d2cfU,
  0xbd08a7bd3d6ae66aU, 0x3d1aa4793c5bbf75U, 0x3cbc5729bdc8eee8U, 0x3dc2e01f3ce80a34U,
  0xbd9d1139bd82783aU, 0xbd3beada3cdb147dU, 0xbd54375bbe22c0a2U, 0xbd3b95903dd7901dU,
  0x3d8febcbbe0f7108U, 0xbe1e58453dbd76d2U, 0x3d865d773d49ec8eU, 0xbe077934bdcba19aU,
  0x3d47e9843d34f30cU, 0x3d56303abde79e89U, 0xbbc1fd7e3c27f458U, 0xbe186c75bdc83b79U,
  0x3d98a88dbdd25db4U, 0x3d95379dbc474eb8U, 0xbdf9f7a9bc829ff7U, 0xbd0554083db17bc0U,
  0x3dce609c3cb0410aU, 0x3d2168693d46a888U, 0xbdf9fc8cbda1c78bU, 0xbc3335ee3dfe68fbU,
  0xbd9a8bd53e1094c0U, 0x3dda12eb3d8d8425U, 0x3dd47281bde38e24U, 0xbc02ee4c3e10539fU,
  0x3dffafc93e063853U, 0x3d674b543db0114eU, 0xbddd5fcc3c01b11aU, 0x3d3caab2bd1e5474U,
  0xbdf91c2cbd872ae4U, 0xbd677902bdbbcdcfU, 0xbe10ffbd3d67427aU, 0x3d2b95d8bdd769a2U,
  0xbddeb55c3c964679U, 0x3d32e99e3e035a0bU, 0x3c9654203d457cafU, 0xbcc74d993dc2b5f5U,
  0x3c8357b6bcf72cf3U, 0xbd842c58bdf4d081U, 0x3c8f1a743ca72923U, 0xbb1be79a3c6820d6U,
  0x3d9b687dbd67fffeU, 0x3dd21bc83dfb9636U, 0x3b215a573d46a3a3U, 0x3e0cac50bda28333U,
  0x3dc9641cbcea1ba6U, 0x3dd9ffe73d169d72U, 0x380625363cf3b4d0U, 0xbdb1d7e9bdadeb3aU,
  0xbd7878c03de56819U, 0xbe0a084e3c692742U, 0x3e00450bb9fc6b46U, 0x3d82f512bdb5b300U,
  0xbdfd59a83d09f00fU, 0x3d67e676bd9b77dbU, 0x3d2d109dbcc1a01cU, 0x3e0462b43d55af5fU,
  0x3dfeeb4fbd156983U, 0xbd7209563c22a776U, 0x3d790404bd00c72aU, 0xbb7c58a73df78224U,
  0x3de687f6bd4113e2U, 0x3cdfdece3da2f971U, 0xbe078584bd013b75U, 0x3bb94fb2bc303c6cU,
  0x3dceec9abd8e185cU, 0xbc233c53bdb58be1U, 0x3d30e7eebe1e0a46U, 0xbe169db7bd4d29a3U,
  0xbda6d87d3c1b6b85U, 0x3d6130a4be0eb470U, 0xbd91c71abddfc8e1U, 0x3db2102c3c9c2b6aU,
  0x3dfcbf623de016a0U, 0xbbbd4cb33dac3810U, 0x3dd043b23d9bf997U, 0x3d5e6bb3be18361dU,
  0x3d8f1830bdf96fdcU, 0x3c9aff223cc30761U, 0x3e05348bbdbd3a6dU, 0xbdbe31acbcd6ac2fU,
  0xbd1ff0253b549fd2U, 0x3dc89606bd946a9dU, 0xbe19206ebcdf8a37U, 0xbd51c1e1bd67157eU,
  0xbe0fd0653cc047e5U, 0xbcfce90a3cb66891U, 0x3cf7393b3ddd662aU, 0x3cd4e7ad3dd05870U,
  0x3cb62c9abdd15ec2U, 0x3d92d0a0bc981618U, 0xbd310c85be17cd64U, 0xbd78ca203d65e2b8U,
  0xbdb0b71b3d85bdebU, 0x3dfb058d3cb0f933U, 0x3d5706f03deaffffU, 0xbde318c73d3b42d9U,
  0xbe19e5f7bd7c52ccU, 0x3cd312a43de2aa3dU, 0xbcd523163cc5661fU, 0x3b2f5281bd6a313fU,
  0x3d4529b83e03e83bU, 0xbc5e6c4b3b543afeU, 0x3dc55f3ebdcf398eU, 0x3da4e348bdcef893U,
  0xbd855c3cbdb3b59aU, 0xbae8628b3c84e4bcU, 0x3c7e8c3c3df08a20U, 0x3c5b9b6c3d829ba1U,
  0xbe12d2b93c004ad1U, 0xbdd3320bbdc2116dU, 0xbccb9f613cb5c8baU, 0x3e03c5d63da312ebU,
  0x3c8ec9efbdf46356U, 0x3ce8fc99bd409728U, 0x3cf27f42be01cf40U, 0x3d65d5b7bd3e6c40U,
  0xbd6f86bdba24f470U, 0x3d4164e3bdb3aff6U, 0x3d625d763c3828cdU, 0x3d0ade2abe1498a4U,
  0xbd0912573de31dd9U, 0x3d8283c03d882b0dU, 0x3d4076bb3d41414dU, 0xbd4f89dc3d1e8864U,
  0xbe0b0e773dfe43a0U, 0xbe0d21773e04f53aU, 0xbdae764fbdadb7b5U, 0x3d0ebd5c3de8d1adU,
  0x3e13c24e3d619053U, 0x3db3a09cbbead67fU, 0x3d83d8a5bc8a9b05U, 0x3c54600b3d1b5504U,
  0xbdc32fd3bdb85449U, 0x3d6447d83da52e63U, 0x3dc1d9be3db07a19U, 0xbdbc4028bde907cdU,
  0xbd51a77a3d53b793U, 0xbcc77ffdbc635108U, 0xbde66e5e3ba7b7a3U, 0x3bee01213cad5d8bU,
  0x3d90c1e93d8afde5U, 0x3db739e4bd4b96a1U, 0x3ddb43613caa7435U, 0x3e1e79a5bdc86cd0U,
  0x3db572403d8a843fU, 0x3d66cd5dbbe33d87U, 0xbc428783bd5a8624U, 0x3ddeb9113dda54f8U,
  0xbd6ab47d3d4c9d60U, 0x3cfc1372bd4373eaU, 0xbe1876e3bd067fd8U, 0xbdb8bbab3deec3f9U,
  0x3d2927f43dda06f2U, 0xbd8161f9bdee2d88U, 0x3d98e44f3dae51a3U, 0x3d5c0b123d70e537U,
  0xbd9eff69bd8ba667U, 0x3e0939a83bfe332cU, 0x3c4140483d440f8dU, 0xbc34ba923e094937U,
  0x3db5d26abd608950U, 0xbda75221bdc9be3bU, 0xbcddfcc9bd8dbedfU, 0x3e096cb3bcaf1e48U,
  0xbda7e069bd2b2f62U, 0xbdb25a703e0dabf4U, 0xbd61f11f3d51b589U, 0xbd77175c3d29958dU,
  0xbce14bf93b654aaaU, 0xbd29c714bddd8f73U, 0xbdb12abc3c9f4d88U, 0x3dad06333e0916f1U,
  0x3ba870f1be1d585eU, 0xbde6f56bbdaed32eU, 0x3db3abebbd7cb36fU, 0x3d0df090bb87f5edU,
  0xbce0cc663cc223d2U, 0xbcb98aeebdac2f1aU, 0xbdf06de6be05c985U, 0x3e1016823ddbc622U,
  0x3a58f669be1a2f45U, 0x3be2707f3e0f73a3U, 0x3dbde8633d989e54U, 0xbe03215ebdddf11cU,
  0xbdf314cebd3203ddU, 0x3c3e56aebe02dfc2U, 0x3dbab5433dca66b7U, 0xbc94fe20be0fc609U,
  0x3df830e03d7185ceU, 0x3d9ccc02bde403a4U, 0x3a22e0c63d0fd636U, 0xbd9ecf463d46e20cU,
  0xbdefacffbdc3dc42U, 0x3d69c9ce3e135893U, 0xbde94b8fb837a266U, 0xbdea8526bd684b82U,
  0x3e08dc98bd21baf5U, 0x3da5c2593e055511U, 0xbda7983c3d9a585cU, 0xbce2cbe03e06391eU,
  0xbddb02b23da0a993U, 0xbd15a58abd0d02cbU, 0x3c0f49adbd2befbdU, 0x3d299601bd494c94U,
  0xbc0ea8f9be12c42bU, 0x3d64d7eabe0361a2U, 0xbd5ee9873d0ea64eU, 0xbbc14928bc66e417U,
  0xbc0bcc41bd07d5a7U, 0xbde5b8f4be029bb5U, 0x3d4a052bbe09f242U, 0x3d40f9dabd48d789U,
  0xbd0735fdbe0db678U, 0x3cc378ddbe1261abU, 0x3ca5019d38db89fcU, 0xbd35195bbe07e476U,
  0x3c0c9ad5bde97026U, 0x3df1d8883d40de2aU, 0xbd4f904c3db55435U, 0x3d8ec0e7bde9a0e6U,
  0xbc9d26d1bc56b2d7U, 0x3d1668c03cd40153U, 0x3cdaaaedbd0e4093U, 0x3dec4bad3e08be71U,
  0x3c43d078bd223408U, 0xbdde04443e02db86U, 0xbce225cc3d504164U, 0x3dfda8cf3c9dde09U,
  0xbe06a6b93d3cc479U, 0xbcd06c70bce8a7c7U, 0x3d89d89b3acc14e0U, 0x3e0643fb3d7aef05U,
  0xbdd9a2ebbdfa30f0U, 0x3d7d4a95bdfaa57aU, 0xbe0e9189bc8d9df0U, 0x3e0f10553c935c8eU,
  0x3d348a61bd31181aU, 0x3db02b3d3cac839dU, 0x3d444b773b48eb44U, 0x3d8a085bbd3357eeU,
  0xbdc0e646be052100U, 0x3d424d40bdf77d3eU, 0x3db363943dfd06edU, 0x3d1dfce7bdc8acbeU,
  0x3d17f96abd981c54U, 0x3dc84ee1bd4ca1c5U, 0x3c50f06bbc201f6bU, 0x3d772f183e196cc6U,
  0x3d9bcf4dbd83e899U, 0xbd65adb73d607164U, 0x3d9d87d3bc20296cU, 0xbe1362613d326600U,
  0x3e04d15dbde5729cU, 0x3d96ba17bb816d6cU, 0xbe17cf6dbd152d15U, 0x3c9dba30bdf2bcb8U,
  0x3dd396b73e0762e1U, 0xbd0624163cb0d698U, 0xbb572abf3dbe6540U, 0xbdc1102ebd358c12U,
  0x3c7ac73ebe1c7eafU, 0x3de6865fbda93de4U, 0x3da56e103c83fa26U, 0xbdf6b8ed3e055e52U,
  0x3ddab71d3c1fa156U, 0x3da5b547bd882400U, 0x3c03aab93ddee03dU, 0x3e02b3523d14c65eU,
  0x3e077395bd8aa197U, 0xbdc922a93de91d32U, 0x3de348e13c9db7b9U, 0xbd8ab3ed3dfab4c6U,
  0x3d559e20bdda4b1dU, 0x3d94ae97bd725dc5U, 0xbda6745dbdfbe339U, 0x3caa657cbcc55ee2U,
  0xbd579eadbd363d78U, 0xbca588d33ddc1f4bU, 0x3d246bd6bdb3a391U, 0xb9483d2abc6fd8b9U,
  0x3c9fa0d7be02be0eU, 0x3d1824e0bdb311ddU, 0x3d8167d83dd8a90dU, 0xbdd3dd96bde6f9dcU,
  0x3c3404533d565047U, 0x3d839b25bde9af93U, 0xbcbf2f0ebe0aead9U, 0x3c6dee5a3d996fc3U,
  0xbda7c0593a454053U, 0xbe05d40a3d63a16eU, 0x3dfe80ddbcc20594U, 0xbe0b7055bdb5d139U,
  0xbbf00c5d3d8564a5U, 0x3b382be83ad9e734U, 0xbdc106f4bddbc082U, 0x3dc4caf3bdace3daU,
  0x3d4b11b7bcf53dc4U, 0x3d0164e83b3b28a4U, 0x3d54d5493e02be71U, 0xbe006cd3bd944072U,
  0x3bb46377bdb428d6U, 0xbdfb519b3d3bf531U, 0x3c8f3604be04c66eU, 0xbd5f1f8e3d17800eU,
  0xbd892cb13ceaa4ccU, 0xbdff0552bc0c5777U, 0xbe016fde3d918760U, 0x3d1d0a0dbc878c0eU,
  0xbcbac4b9bd9f51e6U, 0x3de2758fbd0d047cU, 0x3da99241bccd8f8cU, 0xbdc2d5c33dc90241U,
  0xbd97d40abe131b63U, 0xbde9c390be00830aU, 0x3cbe0fe63de72e89U, 0x3d8924f9bde18670U,
  0x3d83ecbabd9fd61cU, 0xbe08d2253ccf7b8eU, 0xbe25708f3e0e213bU, 0xbd5ca9f3bb0f27ceU,
  0x3de2261bbd7dba5dU, 0xbd776ae5bcfca0f2U, 0x3dc039ae3c16b810U, 0x3d605a4d3d31c235U,
  0x3c4744cf3e2f550fU, 0x3da9a556bd2c7df5U, 0x3d1d487e3aedf7d3U, 0x3d67b17e3d88fd46U,
  0xbcde2c07bd240bb7U, 0xbdc282ab3e1aebf3U, 0x3d8de4063e04b64fU, 0xbc0b5643be0d372fU,
  0xbcc92acabdd46f08U, 0x3d539001bdae6f5cU, 0x3d0568b73d38a87fU, 0x3e0096d93dea927fU,
  0xbdc84d2d3c2921d7U, 0xbdab4e5e3cbfea8aU, 0x3e20e72bbde32d73U, 0xbd765e833ccfb86cU,
  0xbe086bbf3e19ea25U, 0xbdc95936bdacbd4bU, 0x3e0217b9bdf9c434U, 0x3dd4f9243c828397U,
  0xbe12d6cbbb3b707dU, 0xbccac91e3b66a859U, 0x3bfaa371bdc1af38U, 0xbde25b893d96c1f8U,
  0xbb51bd6a3d01b361U, 0x3e038facbd75fb6eU, 0x3d91a596bdc5f241U, 0xbc0e3bd83d6ee549U,
  0x3db7a6a33cef74d5U, 0xbe0b08393d721f56U, 0xbd337a60bc9235aaU, 0xbdabd320bcd2c1d3U,
  0xbdd7f260bdba0a9bU, 0x3d465558bd678e0aU, 0xbd822ecdbdc155deU, 0x3ce16e7e3da5a235U,
  0xbde01491be0d42e6U, 0xbd85ea06bd9863b5U, 0x3d5a79c13d329a04U, 0xbd73dbe5be02f797U,
  0xbd42b9513dd60e09U, 0x3caed5c03bd49d7bU, 0xbce69c87bba67b94U, 0x3df5c95cbd3b3a8bU,
  0xbe0a6100be080641U, 0x3d3fc4e5bd4efae3U, 0xbd6faafbbd244d95U, 0x3d53e038bc2be382U,
  0xbd9aa636bd87a34aU, 0x3cac417ebcbe2676U, 0xbd1bea783d869b2cU, 0xbd48cdce3d921646U,
  0xbd1708583d8bc213U, 0x3dc0f13a3de07befU, 0x3dcaf6c7bc93d550U, 0x3dc732e9bdced007U,
  0x3d5c5e143ddeeb5fU, 0xbd831130bdc792daU, 0x3d280f493cba89acU, 0xbdeb5837bd52063aU,
  0xbde5cb523e0f5a8cU, 0x3e0f72cc3d7a1b75U, 0x3da6e1493d8bef65U, 0x3da0903abd53ab52U,
  0x3af637d4bd54a67dU, 0x3d8aba243e224e4bU, 0xbc6c228d3de52754U, 0x3e09016d3d2d1335U,
  0xbe0b05893c8af38fU, 0xbd95f1ed3e13791cU, 0x3da6ec53bdf12fa6U, 0x3ce70695bdb85643U,
  0xbda5138f3e038334U, 0x3da32cd83b27797bU, 0xbcbd27083d96e86bU, 0xbd8401a2be07da80U,
  0xbe23a095bdeb22b9U, 0xbdb80857bdf933a7U, 0x3d57f04e3dc9260dU, 0xbdabd3483da825d5U,
  0xbc06473f3caa1142U, 0x3c597ed6be047008U, 0xbcda046dbe158c17U, 0xbdb839dd3da0f2ccU,
  0x3d8f4814bd6acf4aU, 0xbad85f4ebd33d7b6U, 0x3dbab8bdbe083f77U, 0x3dbc1b99bdfd7825U,
  0x3d1716d0bd40cc36U, 0xbd777eb2bd73c344U, 0xbd90bddf3d9bd23bU, 0x3df4c3ddbde31011U,
  0xbbe86f513d19fdc5U, 0x3cb8af4fbe2305a0U, 0xbb7c1c75bc6d809eU, 0xbdc6058bbd19680cU,
  0x3d113041bbb7de20U, 0xbd07888c3dad8637U, 0xbd921f23bcd2c48fU, 0x3c80e7a5be005872U,
  0xbcdf0b793dd9d961U, 0x3def51193d886e06U, 0x3ce9e1823ceddf21U, 0x3cc73676bd233234U,
  0x3c4990323daf4956U, 0xbe01e792bd95a3cfU, 0x3e00452b3cbbf6ecU, 0x3d9c32e13ca77705U,
  0xbccf6125be19dc12U, 0x3da8ccf4bc9b714bU, 0xbc300f9f3e0f608bU, 0xbdacaa2abd72f634U,
  0xbce756443c4ae1fbU, 0xbd8f4691bd0ba183U, 0xbc30984bbd9f4663U, 0xbdb4c93e3e202477U,
  0xbcad76f6bddecf56U, 0xbc2e55433bec5126U, 0xbd2d7631bc5a589cU, 0x3d61c0233cd08bc7U,
  0x3cae39f1bb71b587U, 0xbe212ff0bc8aeaffU, 0x3ba6e04fbd66addaU, 0xbe0aea4b3e14851dU,
  0x3dc29c1a3da20fc5U, 0xbcf44065bcd5ceedU, 0x3daf80593d662e05U, 0xbcc9beb9bd54284dU,
  0x3d37d9613d4f82e8U, 0xbd70a2fe3b244f7dU, 0xbdc6943b3aff83dcU, 0x3dcfc6863dc026e4U,
  0x3dc53e02bde6b293U, 0x3d5ccdcbbda9e94fU, 0xbd4a716dbd62e734U, 0x3d7edbdfbd882214U,
  0xbdd740633db8149dU, 0xbbec0afc3d2b64d6U, 0x3d2e8f273d9d4917U, 0xbbb82306bdbe1697U,
  0xbd8368dbbc2f171eU, 0x3d261e9c3cbca3ccU, 0x3e0b84b13d56bf44U, 0xbe0fcc72bd81fd2bU,
  0x3d980caabdcd6ceaU, 0xb9cf9b71bd4c4d2cU, 0x3db2c8ffbdb329a9U, 0xbd9f1ebe3ce6b3c0U,
  0x3d8927c5bc1a42eaU, 0xbd9e71dfbdae95ddU, 0x3dcb63a9bd49b597U, 0x3db960b9be09c7c7U,
  0x3dc0ca20be00798fU, 0x3df77bc23a935809U, 0x3df26657bdf449aeU, 0x3b169cc23c7d9efaU,
  0x3d1a3e1b3aebd4cbU, 0xbd98684cbda9c947U, 0x3db5851e3def1473U, 0x3dc3c0d7bcc284a9U,
  0x3c9aa880bde35cb0U, 0x3dae0b57bd5fe1faU, 0xbd7c3e923da9accaU, 0xbc8ce62c3dd0f932U,
  0xbdead1c3bdc99442U, 0xbca2ae143dea7405U, 0x3c62e0b9bd33b7b0U, 0xba7995da3c21864dU,
  0xbcb63becbc9cc795U, 0xbdd9a2fdbdab3e29U, 0x3c067f19bd008c2aU, 0xbd011b44bcc9f757U,
  0x3cb254973d8fe91eU, 0xbd99a2febd3d8246U, 0xbd8251b2bc926863U, 0xbd27dc52be426c28U,
  0x3d29e2b9be2010f7U, 0xbdb6f0593d751be1U, 0x3dd152273daa8422U, 0xbd350b5abd88122dU,
  0xbddce023bd5de14fU, 0x3db4e4cdbc901345U, 0xbd0955363d09c1c0U, 0x3d171819bdd4b811U,
  0xbd6204dfbe15c1e9U, 0x3dd9f8653cf77577U, 0xbd73321ebc8698f2U, 0x3cec63febb8366ddU,
  0x3d889bfb3cc84506U, 0x3d55f6493e17a780U, 0x3de62dc3bdd835ffU, 0xbcf095fcbda2c5b4U,
  0x3d2bab9c3dd0c261U, 0xbddefd7a3e05b824U, 0xbbb687283dc8f9d7U, 0xbd1c64f23d402246U,
  0x3d9933453df7fa49U, 0x3cf92aa73dd363e7U, 0xbd86ce56bd23a744U, 0xbdcffb56bc520a50U,
  0x3e00bea1bd8c3eb2U, 0xbd2fc0afbd1aff57U, 0x3c2f7912bd3d3baaU, 0xbde6269cbe00456dU,
  0x3cbbfec0bd0c002eU, 0x3d102781bcec1fbfU, 0xbde94a673dd5d717U, 0xbde7293abd866952U,
  0x3e0c71bf3d284e4aU, 0xbe01b8b5be04dbfbU, 0x3e0f2e373de34e47U, 0xbc921b493c9f91ceU,
  0xbdb5cb873c152ee7U, 0x3ce6564cbd8ebec2U, 0xbd01371d3dc09ba9U, 0x3d20f0623c9df2b8U,
  0xbe0e89763ca762e2U, 0x3d38fbb7bd9389c7U, 0x3d236cd13cb3e2d2U, 0xbdd215adbd8a14b8U,
  0xbe01c8483e0365a3U, 0xbdaff949bd9fd50fU, 0x3dd12f84bdf23ab1U, 0xbdbfeafabbefb938U,
  0xbdb8e044bda49368U, 0x3d802d14bdc01249U, 0x3cb585f4bdd94fd7U, 0xbc6aa4cbbdd1eb9dU,
  0xbdb96551bdcbfb59U, 0xbe0168e83c2bb34fU, 0xbc38ba5f3dc7395dU, 0xbd6ac8463db4bda2U,
  0xbdde6559bb85ae63U, 0xbddb30d13e0e661aU, 0x3b43729a3dcce379U, 0xbe121ae9bd9ba245U,
  0x3e1a8a063cccd0cbU, 0x3e076b3e3dacafc6U, 0x3db1119a3d81d621U, 0xbdea35d23dd3f051U,
  0x3d833e7cbdc4b769U, 0x3dd3f0e03dd48597U, 0x3da2b88b3dbc9bd6U, 0xbd7d71aebd8727eeU,
  0x3e05768c3dd04a6cU, 0x3d7a4d27bda06a9cU, 0x3cf7a1d13d9645d0U, 0xbdf98d3cbdbbfef2U,
  0x3d86c6eebe058e6aU, 0x3d09e8b7bdf76f73U, 0xbd36f3debdc787f6U, 0xbcad825cbd6c3b40U,
  0xbd6537513d5353d3U, 0xbe135ace3dec1decU, 0xbdeaf18fbda86e47U, 0x3d362d733d8b2492U,
  0xbe0f511fbde8bd71U, 0x3d950da7bde0f07eU, 0xbc906c13be073aedU, 0x3d0c908dbd8f9f42U,
  0xbc9dd7a4bd61a660U, 0x3daaf7783dbcec32U, 0x3beafb12bdcd54f9U, 0x3e073404bcc11f09U,
  0x3c8884b2bdc22107U, 0xbd3b543dbde3d005U, 0x3d834202bcc23339U, 0xbd554638be116e87U,
  0xbc801df9bdf71d54U, 0xbdad7f7bbe06ca81U, 0x3d09e6bcbd69030aU, 0x3d1f8ebcbcef118bU,
  0x3d2f38b4bd83ea53U, 0xbc608d743e008980U, 0x3df15ddbbe025af1U, 0x3dfefda13ae648afU,
  0xbcd1d1ba3dac1a3fU, 0x3dbd50d93dbcfa70U, 0xbdfa9a123db3df6dU, 0x3d96b6cfbddf4030U,
  0xbdb606873de51a04U, 0xbc93e8a13dd8201cU, 0xbd7f79bb3df1b3c9U, 0xbd15be293e001077U,
  0x3dff15703cde9bf9U, 0x3ccb089abde18132U, 0x3e0444fabdc922bcU, 0xbdbb82acbdc29564U,
  0xbd5fbcabbc8b48fcU, 0xbdb3d52e3dc6b910U, 0x3e010f83bcf4effcU, 0xbd80aae03d03800dU,
  0x3dca3536bc9d87a7U, 0xbcd690b1bdfc79faU, 0xbd13713e3d8f6ebfU, 0x3d7971d8bced8457U,
  0x3e021d49be131a8eU, 0xbe180433bdcd0556U, 0x3b80d3733da9f1a3U, 0xbdc7b18bbd5e2640U,
  0x3d5c6aa5bd32c96eU, 0x3d5cc1debdd3e92eU, 0xbdb3f5fbbd989ec4U, 0xbd02833fbe0fb75cU,
  0xbdc9a6363de79075U, 0xbdcb858bbcae3592U, 0x3cb565773deebcf0U, 0xbde712de3db73fd1U,
  0xbd089a373d5ccd50U, 0x3d8cdb913be854a9U, 0xbe1887ef3d7d85ceU, 0xbda2ffe93d67d727U,
  0xbda24900be192458U, 0x3d766232bd6156d2U, 0xbe096b17bc7c96cdU, 0x3da718053dc1f247U,
  0x3e08e97dbe12e6dbU, 0x3d231e5bbd69390eU, 0x3d6fcab63dc8dfafU, 0x3d5990f2bdbd79bcU,
  0xbc2a73c53d409b47U, 0x3e05554bbdf3961aU, 0xbd1e81c13d899abcU, 0x3d49fd893d9c2987U,
  0x3d9784e23d305479U, 0x3d869b813db25ad1U, 0x3dcec83cbe0aed3dU, 0xbc949b673dfb328cU,
  0xbc8c82e83d6fed54U, 0xbdaa95b2bdb5bca2U, 0xbde1b29d3d0ab829U, 0xbdd2998d3d06b2bcU,
  0x3db367e13d8cd162U, 0xbd775980bd859d64U, 0xbdbfaf1fbc80b0a5U, 0xbe084702bdf21f80U,
  0xbdc350683d8bce8cU, 0xbda0ef273b96562bU, 0xbc4866053d799493U, 0x3d28e9efbd7d2d1bU,
  0xbcc8b6343b96efbaU, 0xbc9642cebd3bf938U, 0xbd634ff6bde012a2U, 0x3da61d343a2e30beU,
  0x3e08dc00bdfacb9fU, 0x3e04c82fbde85255U, 0xbdd842ba3c8520d5U, 0xbdff48a4bd9882cdU,
  0xbe0613933e0f4176U, 0x3dc56ea73dae3c91U, 0xbbe0084a3d338123U, 0x3db4d393bde95ed0U,
  0xbdbce7073d3dbd12U, 0xbcdc32d23d862df5U, 0x3e0a31003bfb1dceU, 0xbceb8913bd0d85d3U,
  0xbc3e808abd0b4e2dU, 0xbd019781bd8357cbU, 0x3db90d8dbd3b0a4aU, 0xbcf585f7bdcd4034U,
  0xbd6df323be036164U, 0x3d8c519bbe0ef697U, 0x3c539eb8bdc45d8dU, 0xbdf9c4463a11c0d9U,
  0xbd5d8fd93e2a4995U, 0xbe0dd2033def9aaaU, 0x3da96db83dd24f6dU, 0xbd15d7b83d3398bfU,
  0xbd37f9f0bd0d7cc3U, 0xbcb107683d279bdbU, 0xbdb1be313e0a2c82U, 0x3a8d4001bdd532fdU,
  0xbc833e4e3e05bf4fU, 0x3dd409f4be0852afU, 0xbbb8a364bd9668c3U, 0xbc6db334bd92a444U,
  0x3d90fac9bd080199U, 0xbe1608d13d6adaedU, 0xbd4c6d63bd9e1f35U, 0xbda580dabd46898dU,
  0xbd5bb45c3de5de17U, 0x3c3e25323c97ac35U, 0xbc969e6fbd82303aU, 0xbd8fd09cbd723575U,
  0x3bcb96b5bd2d69a4U, 0xbd9b4bc4be08410eU, 0xbcf381b23dc716b2U, 0xbca812cfbcb6680aU,
  0x3de7a9cf3db96265U, 0x3d01e59ebbf4c00dU, 0x3e08edf7bcaad47eU, 0x3d619b083e1ac2ceU,
  0x3e0e17babdc3dea4U, 0x3de670b2bd33f16cU, 0xbd8e085bbdef243bU, 0x3cdf512e3d95d49cU,
  0xbd9aea09be1b943cU, 0xbd586f653d7a9c88U, 0x3e1823bcbdb271c5U, 0x3cef2c393ca0ee4eU,
  0xbd6d5900bd8d8af9U, 0x3e05fc36bd3293f5U, 0xbc9768513d79ce05U, 0x3d231eb8be07e6bfU,
  0x3b5840893db04c62U, 0xbd9f45fbbe122d56U, 0x3cd9d6f1bd624e74U, 0x3c125ef83da2cf83U,
  0xbdb9d804bd4380f2U, 0x3ddae2093c96f11bU, 0x3d2cf8733d83840bU, 0xbc5b00cfbd52da60U,
  0x3d5c987fbdfcdde7U, 0xbdb38b62bd6d5202U, 0xbdfdfeffbdf25785U, 0xbe11ef7abde03032U,
  0xbda2c022bdc22810U, 0x3d896d6b3dbf67b2U, 0x3ce46f1bbdb81c35U, 0xbdacbbd7bd36baf3U,
  0x3dd60f7d3df4bee9U, 0xbdbea1f33c36b2d2U, 0x3db37719bd8d6c88U, 0xbbd59ccc3dc5c70dU,
  0x3caeef933dd37195U, 0x3dd84bb43df158c6U, 0xbe02d9e0bd6dee21U, 0xbdf373253def1e74U,
  0x3dab221dbdebe1bfU, 0xbdde329ebdbe8b3fU, 0x3dbb84d4be0d9dadU, 0xbdf0c9ffbe01d033U,
  0x3dd9a33b3c070453U, 0x3df219f73d1bc08bU, 0xbdbb9a7ebd35a776U, 0xbc03265ebcf6c110U,
  0x3df01a8cbd1f60ffU, 0x3dd3e517be1b16b7U, 0x3dee4a413ded57d7U, 0x3dff27e13d18e72dU,
  0x3c6e66463db5c62aU, 0x3c219e0c3e0933edU, 0x3d919c3ebd23af0bU, 0xbde62809bd1f29f4U,
  0xbdbf8550bcefcd2cU, 0x3db50fa93e209995U, 0x3dd793933d0fae9eU, 0x3d9b0a06bd4ccaf8U,
  0x3dfda0993d9084d8U, 0xbe36cacdbdbbf021U, 0xbd99a8433ac2c292U, 0xbd112351bd1a658aU,
  0xbd8e3ef7bd7cd1a1U, 0x3d156b5abd96609cU, 0x3e0a38313dade23eU, 0xbdd17a81bc72d6e3U,
  0xbc9d3933bb8b2553U, 0xbbbec5ebbd47b17dU, 0xbe1e4d8dbbff9cfdU, 0xbd979c5fbddec55cU,
  0xbdcfeb16be0bc46bU, 0xbdefd991bcdddaa8U, 0xbcb4445f3a30bfe7U, 0xbdeccdc5be13a995U,
  0xbba79e72bd9e298bU, 0x3e0109cfbcfcf6f2U, 0xbdf95397bbcd39a0U, 0x3defa262bc724506U,
  0x3e0eaf273cdbb4bbU, 0x3ddb668d3b4e5118U, 0x3e0f585bbddbfe26U, 0xbd9516663c69bbddU,
  0x3e097b583de2373eU, 0x3da889b63e0725b9U, 0xbd9e5ded3dbd7590U, 0xbda3c6f43e00eb1eU,
  0xbd890952bdab9089U, 0xbdd6e4acbd907ef0U, 0xba8a445c3d4d7959U, 0xbdfb6964bda63996U,
  0xbd901b6dbda1e23dU, 0xbdde20a73d2d7c22U, 0xbd16675b3c93704cU, 0xbd99c13cbc947f83U,
  0x3dcd86de3da0701aU, 0xbd80149d3e26ecdcU, 0xbdd124953d314b6bU, 0xbd83bf74bd36c681U,
  0xbe050fefbcafa5b1U, 0x3d860d78bd796afeU, 0xbd9153a9bd2fd651U, 0xbc7f20c63db2ea90U,
  0xbdba7b6fbe1a3538U, 0xbd0a773e3daf9cd6U, 0x3d22fd73bde7c3acU, 0x3defb54b3c8f8688U,
  0xbe028641be000c3aU, 0x3d43da8b3e01e78aU, 0x3de674b83d5435b8U, 0xbd3df638bc34b38bU,
  0xbc7e3adc3ddac29cU, 0xbdb463393e009a31U, 0xbe0bf9dbbd861574U, 0x3a1c068437bad23aU,
  0xbdc65270bd9cc5ffU, 0x3d3c0d3a3d02b5bcU, 0x3c27852bbd6123b9U, 0xbdc3982abe0c541dU,
  0xbdb54014bd29a897U, 0x3cc70e003c6160fdU, 0x3db2e551bdafd450U, 0xbe1c1b6bbdf83dd4U,
  0xbdb3c1123daf0bb0U, 0xbd625ff7bca4f204U, 0xbdfd38c93ded383aU, 0x3e1f559d3dc41ad5U,
  0xbd54deadbd11d5c9U, 0x3da15a0cbd9ebce3U, 0xbdf39523bdd7d65cU, 0xbca8045fbda1623fU,
  0xbcf95879bd0aaa3cU, 0x3d2caadfbdb78b13U, 0x3d89f2283d98b79dU, 0x3e0953933d443555U,
  0x3dc714733b66cf71U, 0xbe1d890ebbd76672U, 0x3d4490be3d592ae8U, 0xbdb872103ddfce55U,
  0xbd8bb96dbbc9b2fbU, 0x3ca4d7a43d2df354U, 0x3bf1587abddfa15cU, 0xbd4129773cfb9f42U,
  0x3e115d67bdc3a0fbU, 0xbdcb8388bdfbdfefU, 0xbe1683cfbd7339b2U, 0x3dc7c5ae3e004758U,
  0x3dcdebf83d938a27U, 0x3ccef1903dfe04c9U, 0x3bcb47a53dc70bb5U, 0x3d225d18bddeef9fU,
  0x3c2942cabd0f8a20U, 0x3dece85c3d107886U, 0x3cb0e481bcfd76a8U, 0x3dc3f4913d0cf1a2U,
  0xbbd8b27a3e204bc5U, 0xbd809641bda9452aU, 0x3b23268f3d49ecbaU, 0x3def5e4f3dcc0181U,
  0x3d8f09aabdf18367U, 0x3d3c39863e0a3c45U, 0x3d881679bdae739cU, 0x3e14b47c3ca8cd79U,
  0xbe01b9283e13e78fU, 0xbd9dcb093df1fa5eU, 0x3d53d2f13dd9233fU, 0xbd93945dbde2a63aU,
  0xbdd11f6b3d78e298U, 0x3dda19d4bcf1f185U, 0xbd3cc324bdbcfd0fU, 0x3e05a62ebda54a63U,
  0x3ddf14f53deec12aU, 0x3c5c6ee53daf5218U, 0x3c93e460bd5c27f5U, 0xbd746ff2bd924552U,
  0x3da0e5ff3d817c4fU, 0xbcc443d43dc7325cU, 0x3d745f5c3e017658U, 0x3d46e3bc3c90f3a4U,
  0x3df360abbd7886ceU, 0xbdbd5f43bde99e0fU, 0xbddcb3dc3dfeeba3U, 0xbe0670adbdf9abd6U,
  0x3dca73a83d1ccefdU, 0xbbb2b3cbbdee1502U, 0xbc75dcfbbdc8179eU, 0xbe182a09bd1fd964U,
  0x3d0979e73bd0434bU, 0x3d907df43d812120U, 0x3d9040393c08c4f1U, 0xbd2e4831bdb48bdfU,
  0x3d81f31e3c673f58U, 0x3d13ddb03d3ce57eU, 0x3ded5c9dbd20368aU, 0xbdfa9e463d1c222aU,
  0x3df0cb843da9ae7aU, 0x3d34732a3db942ddU, 0xbda71d4cbd4bbd30U, 0x3b914044bdcefc0bU,
  0xbca0a8febdab0391U, 0x3c01c1f03b22e741U, 0x3dabf9313bf32c1eU, 0xbdabda5a3d97b207U,
  0x3d45cc843d91db7dU, 0x3dbdcadb3dc0314cU, 0xbd24f950be1c3b7cU, 0xbd8bfd9cbc927d8eU,
  0x3dc3b7813d7f6a6cU, 0x3de7d5adbde79ec1U, 0xbd364a36bd45bdd2U, 0xbcab58d0bce6a65bU,
  0xbb63d3593cad0b0aU, 0xbceac76fbe06d6aaU, 0xbbd040263cf2cf48U, 0x3d35c8d8bde71d6cU,
  0x3d9c2271bdf97accU, 0xbde1cc50bdf64ccbU, 0xbceb0fe23cc9e4d3U, 0xbe148d7fbd1ea3e3U,
  0xbd9f155cbd2e100cU, 0x3de6df6cbd86c5ccU, 0x3d0bd072bd28f107U, 0xbe1b1a8abd89ed4eU,
  0xbd8fcbc4bdffd9f3U, 0xbc04ff893de25ee2U, 0xbc20df223d4155fbU, 0xbd8ab9aabd60eb21U,
  0xbe212814bd64c0deU, 0xbc05f4c73e026550U, 0x3d63d5cfbe0bd5e7U, 0x3db241673d791d31U,
  0xbe2649b43df2ab9fU, 0xbde740683e00a647U, 0xbdb988b63ccb2babU, 0x3b1ed8863dd5a653U,
  0x3d72f8a93d14719eU, 0x3dff0e73b9e771beU, 0xbd7450d43d3e994dU, 0xbdff4987bdc90330U,
  0xbd95ff49bd18f287U, 0x3d858015bdc7beb8U, 0xbd0c6c343dec3734U, 0xbdc8c2113dd38f1cU,
  0x3d17a027bd17326bU, 0xbda65450bcd7b2d7U, 0xbdeac11fbd647750U, 0xbd985eb1bdcf8ffbU,
  0xbd9f0b95bd2f4018U, 0xbbf48cc13d0185b2U, 0x3d8f0746be02240eU, 0x3c69767c3de3b1ecU,
  0xbccdb135bcb6842eU, 0xbc87783ebe1c0587U, 0x3cc610ccbd49b0f7U, 0xbd476a54bcd6aef5U,
  0xbdac38383defb67bU, 0x3d885a8b3d28b4fbU, 0xbc7e2590bdc93779U, 0x3d81393fbe0e86b3U,
  0xbc820cc1be0c50e0U, 0x3dc5b8a5bdaa1121U, 0xbdbe47793d0bdca6U, 0xbd8f26773dacf359U,
  0xbd7a81f43df09d4bU, 0x3db6365cbcb4911cU, 0xbd027bf43db9ce0fU, 0xbd995cc5be0f7c53U,
  0x3d9d58ea3d9b7f6fU, 0x3dde9d8d3dab93c3U, 0x3ce3cabc3c3b74c6U, 0x3c67e22c3ded4d42U,
  0x3ca57b14bdc56256U, 0x3dcbd21ebc9673fbU, 0x3dcc5b62bd4733c8U, 0x3d81ae813df68c24U,
  0xbdecfba4bd2ca68eU, 0x3d81f5b0bdd5255dU, 0x3d9aa5993deeec6cU, 0x3cccd4823aa71c06U,
  0xbcf9f4643dd7bb79U, 0xbe04f6e83dc7e036U, 0x3db66a7d3dd54da1U, 0xbaecbcc5bcd2e021U,
  0xbe0dd64cbdf8f0aaU, 0x3d49581ebdafbc37U, 0xbe2a3fdfbe06d762U, 0xbd706470bd464613U,
  0x3de3d809bb9d9da8U, 0x3d3d50d4bcbf490dU, 0x3dec494fbc651a64U, 0x3ca64236be09c61bU,
  0xbdd21b71bc9d4bb5U, 0xbdbcf7a23dd4c661U, 0xbdcb1845bd085219U, 0xbdbee7a3bd12a431U,
  0xbbc99b27be0be524U, 0x3de4ec573c779c19U, 0x3da4994b3db8721aU, 0xbd1bcc223d8f9b68U,
  0xbd2cef5f3dba9419U, 0x3bf26aed3c728a7bU, 0xbd8c3e24be0b05d3U, 0x3d889888bdd97792U,
  0x3dad3ee43d811679U, 0xbe1cc692bd1d177cU, 0xbb65ce5bbd9737a9U, 0xbe07bfd73ddde1b5U,
  0x3b397f223dcde227U, 0x3c92d5a93e080e28U, 0x3cb489b53e07c5daU, 0x3d8c6b38bda10ac2U,
  0x3dc40bf7bdb8b780U, 0xbcd12d183dcc7d28U, 0x3dc9c904bdee1a70U, 0xbdb4848b3dde7a7bU,
  0x3da3ca96bda785fdU, 0xbdd4a0b2bd90b037U, 0x3c74de933d98b33cU, 0x3dbb08bcbdefe3a2U,
  0x3ce271213db25d5dU, 0x3e0c11623db74cc1U, 0xbd325746bd86b742U, 0xbd7586d03dcd2d8fU,
  0xbdf0ab573c28ca11U, 0x3d86cf23bdf55dd6U, 0xbd559eb6bd8c463eU, 0x3dd8e2cb3df7d149U,
  0x3d1053383d6a412fU, 0xbdfbd7f6bd371788U, 0xbddb05c9bc82f5d0U, 0xbd783e55bdff030aU,
  0x3d891fa1bde4465eU, 0xbd9573193da84bd8U, 0x3d8e87e2bdcffdb6U, 0xbcf99502bd80f9a0U,
  0xbdd37976be1a0e50U, 0x3ddafd93bd7afbcfU, 0x3d7261763db2e1c2U, 0x3d1313fe3b96d79eU,
  0x3d9f1c3bbc06f0ecU, 0xbe1eaf49be05295eU, 0x3dca80f7bdadec0dU, 0xbe23fa5f3dd8262eU,
  0x3ad394de3cc72d6aU, 0x3cc4433fbdc07f8bU, 0x3d8ad253bd81f3f4U, 0xbd71c7a6bc918187U,
  0x3d9ffe5f3da84fbfU, 0x3d935635bd489b27U, 0x3d03c5173dc73f20U, 0x3e1e2a78bd7a1a7eU,
  0xbcec37f1bd7c099fU, 0x3db2116fbd36770bU, 0xbc2542a53c97397cU, 0x3db4d537be084ea3U,
  0x3dc162f3bb98f438U, 0x3dbb0cd1bd484954U, 0x3d84689e3b7890c6U, 0xbc85baadbe15a0cbU,
  0xbe1f347a3df3383eU, 0xbdd4de13bd42c215U, 0xbdfdff42bd7effc6U, 0x3d309105bdbf5739U,
  0x3d0f83cc3d8c5eb5U, 0x3e0493b03dc5ab1cU, 0xbcc1d8c4be027fc2U, 0x3c6bcf733dd5dac3U,
  0x3dbb11e3bcc9de51U, 0x3e02e44c3d7e83c1U, 0x3abb654abd996c6eU, 0xbd37fa6d3ce5bedcU,
  0x3cad16d83d91181cU, 0x3d36eb47bd096fdaU, 0xbe0c2060bd91c2d5U, 0x3df8cc3bbe20dc5eU,
  0x3d84ab2a3cca36d6U, 0xbdd37e33bdca146cU, 0x3dc86c913d696038U, 0x3cfcc39abd0b3e15U,
  0x3dfa0060bc632655U, 0xbe1a12aa3dc4fef6U, 0x3ddd0d72bd5a4b00U, 0x3d05a64fbdf4ad54U,
  0x3d65767e3dcd3c4dU, 0x3cf30cf33ba74a7fU, 0xbe37220fbe361e92U, 0x3e3d6730be101021U,
  0x3db64ce6bd33f9fcU, 0xbe41e3813d19a638U, 0x3dc9ef6fbd9012fcU, 0x3dc670173db5ee00U,
  0xbdaa3301bd22450bU, 0x3cf404d9bdc2e99cU, 0xbd81301fbbbdc644U, 0xbdb45101be073fb2U,
  0xbd9f27a73d461635U, 0x3dcc18643e05720cU, 0xbdfc3c0b3e12613dU, 0x3d291cb4be140710U,
  0xbd744e933ded51edU, 0xbde1416a3db70a18U, 0x3e0c744a3dd84084U, 0xbde7f66dbe1445ddU,
  0x3d9f3a73bcba4d71U, 0xbd6285d93da6588bU, 0x3cca93943c95e75bU, 0xbd6e6082bba81142U,
  0x3d0a8d89bd5f9626U, 0x3a814a9f3d9089f0U, 0xbdcd01a7bd93559eU, 0xbd3713fcbd738009U,
  0xbcc39347be2e8500U, 0xbcfa0c9e3e1c7164U, 0xbdabb44e3df02e6fU, 0xbd51dbebbd675316U,
  0x3de51404bda1fbbbU, 0xbd9f3d45bda14e83U, 0xbe183782bdb905d0U, 0xbcc07682bde88153U,
  0x3cbacc48bd95ad20U, 0xbd5444aabdd72539U, 0xbdb184e0be101b92U, 0x3d2b5e30bdaca947U,
  0xbb85ed203d84e263U, 0x3e2a52cc3ddb6e1eU, 0xbe0e6bee3dcbdd20U, 0xbd950a4d3de43fd9U,
  0xbdd27bdcbd86f9a9U, 0xbc60c328bd2b534dU, 0xbc67c50dbda34d09U, 0xbc9366df3d9a5575U,
  0xbca54e183de3db9fU, 0x3d95f1abbd8453f1U, 0x3d827312bd647e2eU, 0x3d5e52edbcf2ef02U,
  0x3e135e213d6c216bU, 0x3d1efd57bd86f8fbU, 0x3ddb0b903db228deU, 0x3d98ada43dd14ef1U,
  0x3e1354aebc600014U, 0xbc8e6191bd80bc43U, 0x3e16ff8a3adbf97bU, 0x3d99a267bdd51639U,
  0xbd3fad88bcf5966cU, 0xbdf3f2263e20bc2dU, 0xbe1c230ebdb9a63dU, 0x3e0284a83d45748cU,
  0x3d80950dbd8bc2e4U, 0x3e10d34abd45907aU, 0xbe1705a5bd8935ccU, 0xbd830da83d6aba82U,
  0xbdc1d3993e0083bcU, 0xbd7c8c543d852da1U, 0xbdc6cbb33dc40240U, 0xbc8ccd733dff6208U,
  0x3d30acec3dd72181U, 0x3e1ca7de3cd0cca5U, 0xbe0b64423ced1890U, 0x3df520c73db6dd43U,
  0xbda5f8e7bd3d83cdU, 0xbc9f2bd9bcb337d1U, 0x3dc1de3ebc1331c4U, 0xbe25eb9dbcf8a519U,
  0x3d918ef83d38f767U, 0x3bdca8cdbcb8d3f9U, 0xbd81a814bcffb77fU, 0x3c3adb49bdbf516eU,
  0xbd3df1b83d856641U, 0xbd1d3c20bd1d04d0U, 0x3dfaadcb3d28b7e3U, 0xbdbe4eb2bd070dbeU,
  0x3d66859cbdff21dfU, 0x3d8e37d7bbdb52c7U, 0xbdeeacdbbde704c8U, 0xbdec8144bd383a64U,
  0xbd936f033d7bd129U, 0x3e073e5abdcc1d9bU, 0xbdceb7ec3e116decU, 0xbe179d49bb8c8883U,
  0x3cb191483de8dd64U, 0xbceab756bdeafe7fU, 0x3b9b9ba33d39b641U, 0xbd8d5d3a3c9250aeU,
  0xbd55d5813def9467U, 0xbd01bb553cf7cc45U, 0xbd1717963df21f67U, 0x3e06de463d2bf128U,
  0xbdd36216bd2d0ed0U, 0x3cd51ff1bdc54b72U, 0x3cf78db5bd4c21ebU, 0xbd055402bdbe8a38U,
  0xbd4ed6e2bddb7fcaU, 0xbdfecee73d30276cU, 0xbd76b558bd77772dU, 0xbdaffdb7bdd801eeU,
  0xbdf84b31bdb0111bU, 0xbb172b4b3de4a3f0U, 0xbdecdabfbe332ab7U, 0xbc29f5293d8a4bb3U,
  0xbd881990be1be956U, 0xbda3a114bdced1deU, 0x3d8246f8be2206d3U, 0xbd1f9f9ebd8186aaU,
  0xbd3c1e21bbd9cd47U, 0x3dfaf294bd930d74U, 0xbde3527dbe203845U, 0xbdccefd03d174d4eU,
  0xbe024e42bdd9f190U, 0x3e27b6d7bdc563b3U, 0x3ddb07b93c415343U, 0x3ba254bc3e01dbd8U,
  0x3d5cb2163de4759fU, 0xbdf5d7d13bee733aU, 0x3e07b151be0cefcfU, 0x3dc7af673d4a0726U,
  0xbd1454ca3db2d105U, 0xbbf195f6bda48088U, 0xbbb5081bbba29832U, 0xbd602436bda82434U,
  0x3dc641d9bd1a1e6cU, 0x3d8cbe46bd1dc35bU, 0x3dc3d8debd32af24U, 0x3e0735f6bc9e8ca7U,
  0x3d50d2cfbc84c33eU, 0x3d9d2284bd628353U, 0x3d6d8f423a7dcd82U, 0xbd2ec9623e184914U,
  0x3d64c7e83cc82987U, 0x3d19933c3e1a4dffU, 0x3df795793ce90796U, 0x3c2ad9d1bc9404afU,
  0xbe35147c3d1a4d40U, 0x3cf60556be13abb2U, 0x3c5b5d0fbd5876fcU, 0xbda2a8333c9def24U,
  0xbbae95063dc4e573U, 0xbdc18d44bd0a2251U, 0x3d0395f5be086eccU, 0xbcfbf3d7bca24334U,
  0xbd3f67d0bd027c16U, 0xbc83eb9dbd8a898dU, 0x3df87df9bdd85517U, 0xbdbaefba3e0a2503U,
  0xbcf8960fbdfe7d0cU, 0xbd85b594bde96a7dU, 0xbdd43bb6bde827e3U, 0x3d9e0449bdc7322bU,
  0xbc4aede13dea3447U, 0x3dd8a6013e0ca9d5U, 0x3c7ccc3dbd71b68fU, 0xbd3a9292bbc66255U,
  0xbe428adcbe2a8522U, 0xbd94c9723e096bf6U, 0xbdea30ad3d7a66b3U, 0x3deebd40bded78cfU,
  0x3cca4be73d19295bU, 0x3de4fb273ac48b19U, 0xbd9e7e7ebd9079dcU, 0xbe15ca53bd4e01daU,
  0xbde7a02ebdb6258bU, 0xbd860506bcaca974U, 0x3dff083abd2a650fU, 0x3e1ebeb0bcd40d6fU,
  0x3d6965e6bc4f22e8U, 0x3e0771aa3d76e5bbU, 0xbc1999c2be066d0bU, 0xbd9f30723e267572U,
  0xbd599c603d39c390U, 0xbd8da927bc9bc7b3U, 0xbd796d0bbd95bf3bU, 0x3dfa3a0abd94fcf1U,
  0x3de529d33de41ba9U, 0x3d61a1e4bda93b15U, 0x3d083cc4be075d29U, 0xbdce0ab73b545b89U,
  0xbe293a0b3c0eec31U, 0xbda94e423ce0bca8U, 0xbd57ceefbddd8634U, 0xbe13efe93db19f07U,
  0xbda3aeb6bcbba4b6U, 0xbc95216e3c905e3eU, 0x3d8dbc273cd44899U, 0xbd0618ae3dc8c426U,
  0xbd517d9f3e0a659bU, 0xbe1ceaa23d667c64U, 0x3db86b223cb315deU, 0xbe1dad76bd2dfdf2U,
  0xbcb4cd0bbe1f6c4dU, 0x3dc9f55a3de3bc11U, 0xbd3752763b995ae0U, 0x3dd19091bdb56a00U,
  0x3dda0445bc5a65ffU, 0xbdf25750be1662c5U, 0xbdc26531bd05e906U, 0x3c077db93d815906U,
  0x3d8c6ac7bdacb396U, 0xbc7ec281bd279e31U, 0x3d08c13a3e02d77eU, 0xbe02dbefbddf1b33U,
  0xbdd292253c39278fU, 0xbdfa8ce03d1d6a2aU, 0xbd824eda3bb6c279U, 0x3cdda1b43de62b0eU,
  0xbcd3c1b8be159c16U, 0xbd98416cbd486c13U, 0x3d78f270bd0cd531U, 0xbcd46195bd278d91U,
  0x3d84b64d3c9f8e19U, 0x3d81bd9f3ddc4bd6U, 0x3d943ceabd14d334U, 0xbe32b94abd416286U,
  0xbda25e3a3d039b89U, 0x3d96a21dbd7daec5U, 0xbc8e5cccbdb0adb2U, 0x3dc8c9c93da8718aU,
  0x3c304bc93b5069a6U, 0x3c94812e3d7d5178U, 0xbd043523bdd24556U, 0xbdadae3f3e061093U,
  0xbdda2294bd544396U, 0xbc8ed0e1bdfb1cdcU, 0xbd1b0873bded9e81U, 0xbe064f3e3cf36afbU,
  0x3de82ac73d618f48U, 0xbbb87d0f3d004276U, 0x3d586280bcdd19f7U, 0x3c0c1c8a3d49b4d4U,
  0x3dfda88bbddbc873U, 0x3dde4da9be05a62aU, 0x3b87633bbde21798U, 0x3d8d42b23de7c70eU,
  0x3dd230993e0b75fcU, 0xbe00f7183d8e9b0dU, 0x3d858ede3d481d13U, 0x3c201a15bc1290a3U,
  0x3d80eaf3bd279a7cU, 0xbe07b3c2be1313baU, 0x3da94bd4bcbec8e6U, 0x3ca032863db70800U,
  0x3d0c09b2bd80fcc2U, 0xbdeab6e0bc452bd8U, 0xbdd4f046bcc2e2feU, 0xbd927266bd6b3605U,
  0x3da99f293c8ab132U, 0xbd4d27fabe14b37fU, 0xbd89bd91bce4007fU, 0x3ccd4d06bced6501U,
  0xbdc3ad81bde7e0c9U, 0xbc74f9123e0d94b2U, 0x3daf906c3dc26d8bU, 0xb9b0b4c1bc02ae82U,
  0x3e0a92afbe1a1d93U, 0xbd7e8c22bbf6879bU, 0xbce411fcbe084f27U, 0xbdd1fe3cbca5e1a1U,
  0x3c588feabdaae927U, 0xbd5697f23d071ebdU, 0x3b4c7cd33d9a8521U, 0x3d1def9abdf17a1bU,
  0x3e02b55c3bfd5b51U, 0xbdeb002cbd84348eU, 0xbd72d192bdaa2570U, 0xba68ffb23c33e48eU,
  0x3dc5293e3dae5a4bU, 0xbdee60c3be12c849U, 0x3d325f39bd2ed7c1U, 0x3dd19c5a3d4dcbc6U,
  0x3dc89b8d3d53ad34U, 0xbe093e03bd7993acU, 0x3d7613aabc066db3U, 0x3d9988fe3ddfdc3bU,
  0x3d8adba2bdccd787U, 0xbd5e7f0e3c686f7aU, 0xbcb901debcfcebe9U, 0xbbae7394bde14da6U,
  0xbdd8308fbe086a74U, 0xbe04dcd4bc7654dcU, 0x3d92b657bdbcfe41U, 0x3d04dfabbd644049U,
  0xbbe109c83de57e3cU, 0xbe0a4b3f3dea2874U, 0xbe0a18f93d9d2280U, 0x3d86543bbd8a1c76U,
  0xbdbd935ebddb004bU, 0x3de05fadbd9b2c61U, 0xbcefdd22bd735b85U, 0x3cbe58bd3d90e4cbU,
  0x3e003c8dbe134972U, 0x3d7bdd15bdd139f8U, 0xbc7d03d03d861a15U, 0x3dd61f18bde16ea7U,
  0xbdaf1bcb3bac912fU, 0xbddc08de3d1e9622U, 0x3db6a6b4be00d972U, 0xbc1361afbd691265U,
  0xbe0ca2993d948f5bU, 0x3d8e41063d919783U, 0xbdaba85b3dfadb11U, 0xbde4fa47bd8d2d1bU,
  0x3debc19cbd52f82cU, 0x3c13153abd6f1c5aU, 0xbdad5bcfbd5b481eU, 0x3d83b767bc0cb7daU,
  0x3d8d501c3d2ec7cbU, 0xbe11f5cf3d84de0aU, 0xbd831faf3da75b2aU, 0x3d1e0a733ddd9c02U,
  0xbe100e21be04f133U, 0x3d15cbfabd5a1f02U, 0xbd77c3203e069ba1U, 0xbd03bd2ebcbd1082U,
  0x3e13789b3dcc4c4dU, 0xbcb00ab4bc4c5a71U, 0xbdb505603d22bef3U, 0xbd2313b83d29d78aU,
  0xbe177c09bd6b56a7U, 0x3d8b802abc8320e0U, 0x3df0676fbdabd06eU, 0x3d798e77bb23fe7fU,
  0xbcb31484bdb81857U, 0x3e02b11a3bbf5e7eU, 0x3c46a6323db8bccdU, 0x3d494a053d36eb9aU,
  0x3dce583cbe158ccdU, 0xbda115383cfaa32fU, 0x3d09821abd3abb5cU, 0xbd337d25be0c964dU,
  0xbd91f4933dddf5e5U, 0xbe0af2f8bdabf61dU, 0x3e0eed6e3d81ea66U, 0x3c59e874bd49b1d3U,
  0xbdb152723c0d17c3U, 0x3cf8a81dbd586e67U, 0x3d8cfc33bde61e08U, 0xbe062c4fbdd46112U,
  0xbda8febbbd01ef34U, 0x3d155813bcd1a2d1U, 0x3d44c517bdef74d6U, 0x3dbfa8e1be09fa5fU,
  0x3dd98c063dee4096U, 0x3b1b0793bd1a60e6U, 0x3d7feef83dad2c60U, 0xbd8da2ccbdba7b82U,
  0xbd36d5c33cc55ea4U, 0x3d7770773cae0998U, 0xbaa73d4c3bd1125aU, 0x3d0829d63b076687U,
  0xbe0f8379bd8a87fbU, 0x3e06316ebd1f3ad5U, 0xbc984c64be0d1147U, 0xbd1a6c463d36dd6aU,
  0x3e0cf1723c9fb6deU, 0xbe1489d1bdb0fc92U, 0x3dbbb5a8bdae9374U, 0x3d552a47bd835640U,
  0x3e143207bd04a8dcU, 0x3d9fb2203dcb45a5U, 0x3d784e3e3d9a0249U, 0x3dbf0c283d66ad01U,
  0xbd37bb9e3dcf2763U, 0xbdd73b763de9e692U, 0xbd0a11a1bd2627a8U, 0x3cc814e5bd862653U,
  0x3bf55eaa3dbf8f9cU, 0xbd4c83073d098593U, 0xbd60b17bbd26c920U, 0xbd1dfaea3da5a777U,
  0xbdf654f5bdc07263U, 0xbe1908af3de61837U, 0x3def0c94bc2af862U, 0xbbf247b13a08519dU,
  0x3b26f022bdf437fcU, 0xbc8f7950bce14572U, 0x3dc396fb3dc2c895U, 0xbdc091edbe125e47U,
  0x3deb88b63e10569aU, 0x3dc5b40ebc1a2c6eU, 0x3d7db4683ca6de8aU, 0x3ded5b0d3dc16f0bU,
  0xbda530d2bdd024e0U, 0xbd2de078be08adcaU, 0x3ddd55f73cb67ce5U, 0xbd834479bd55db74U,
  0xbdd643813d693d95U, 0xbde5c0c2bd5584c1U, 0x3dd54863bc99cbf7U, 0xbdb3015e3cd7a579U,
  0xbb57ce40bded1fb0U, 0x3c81e1b4bd0b4cf4U, 0x3d6b87abbdd34336U, 0x3dd2f583bccd7ae9U,
  0xbd9ce049bddf674cU, 0xbe06a3e63dc7184eU, 0xbdf7cce13c20ac11U, 0x3d53b1ec3e06b1f0U,
  0xbc98c3efbb6f491aU, 0x3e13420bbd01c2f1U, 0xbd39eff83da0545aU, 0x3d724f02bd83e5dbU,
  0xba1a0dd3bd45d246U, 0xbdf363bdbdfcd8c8U, 0xbce33ca83dad4eebU, 0xbdc760e93d3b1429U,
  0xbe182807be0dea41U, 0xbd0384a33e1001eeU, 0xbd88b67dbdb2f740U, 0x3c94949fbe07db19U,
  0x3e04fc4a3dfe0af1U, 0xbdebb96f3da2f092U, 0x3dbba649bd89fb1dU, 0x3d6c49623d98954dU,
  0xbe08003a3d7a0c5aU, 0xbd29e107be0b6befU, 0xbd20ba313d4238cbU, 0xbcdcf186bc6397c0U,
  0xbdcdbfc43d95877fU, 0x3deacb0b3df155cfU, 0xbe09f2c23dfa4f05U, 0xbd6aa58b3b335b0bU,
  0x3df605673cec1f21U, 0xbd5ac00c3d284eeeU, 0xbe0d2c40bd426706U, 0x3d214e823d8876b6U,
  0xbdfc14adbdce2a55U, 0x3da37e383d524e8cU, 0x3dd8f7a7bdfe4e65U, 0xbda749dabd6ac128U,
  0xbe1ac907bd302984U, 0xbc8bebe33ca9d670U, 0x3d1fa4f53d9a0b13U, 0x3cb8be13bb1b17e4U,
  0xbcadddc33daa8f44U, 0xbe0502ad3d18766fU, 0xbde46962bd9b6ab6U, 0xbc4454a9bd1c30aaU,
  0xbe051778baa8a301U, 0x3dfdd61dbd655e5bU, 0x3d9169983df87f14U, 0x3d33940bbdf1d06dU,
  0x3de6bfe3bd7ab5a4U, 0xbde26e84bdf4ed5cU, 0x3d8ba495be07f6adU, 0xbe0ea796bddb3c7eU,
  0x3e033b96be150d76U, 0x3d52e84ebb36987bU, 0x3cf9c8a43b911798U, 0x3cd0e663bd7fdb24U,
  0x3db8cb4fbdc43600U, 0xbcca3d4dbdfc9059U, 0xbde9ba95bbde0648U, 0x3d31bded3d1920c3U,
  0xbe02466cbd10dc50U, 0x3dc030843dd08fceU, 0x3e0c5b8b3db301beU, 0x3d9081e53d07997eU,
  0x3c16f4ddbc6cc0a0U, 0xbcdff224bc670526U, 0xbb6b96173ce5603aU, 0xbc58fccabb68cee4U,
  0xbc241469bb80416dU, 0xbd5a95763c63553eU, 0x3d062d4ebca06a8eU, 0x3d175f6fbacb7314U,
  0x3a5e1f64bbf502aaU, 0x3d064034bb5eb8bbU, 0x36e7549cbc8e09fbU, 0xbd10b173bbee51dfU,
  0xbc3a247dbc06a9d4U, 0x3d095041bcc69b7dU, 0x3bb3f0cc3d7ebf72U, 0xbc630d0a3b219515U,
  0xbd1debac3c39857dU, 0x3c29afd4bcd8e11fU, 0x3c2b7109bcac3164U, 0xbb747c163c998b29U,
  0xbcbd1281bcc4a567U, 0xbc445b30bd6c8107U, 0xbd0baec4bb5e8985U, 0x3c07bcb3bd090534U,
  0xbc9441ee3d2c5fd7U, 0xbd2e9f17bc90758dU, 0x3b06bb6dbc158379U, 0x3ca47dd2bc671e6bU,
  0x3bb0d8ae3cb6407eU, 0xbd114f383cbccb33U, 0xbc9646ad3d09f1ffU, 0x3d11edbf3cc53e8cU,
  0xbcb1949d3c8b4182U, 0xbd0ea7cabcc0b937U, 0x3cbca0ccbc701443U, 0xbd58fd303c38a649U,
  0xbcb5f2d83c3e2d9fU, 0x3b67755dbd0cad32U, 0xbc60bf62bc993929U, 0x3c86d2a33d1a1101U,
  0x3d0c2df73d3cc376U, 0xbd020fe6bd4d41f2U, 0xbd5dcc6b3d25cf1cU, 0xbd445a84bc9228a8U,
  0xbc9b10613d260c36U, 0x3c4d4802bd003f50U, 0xbd582408bc5549f8U, 0x3b04fd7a3d0a3bb8U,
  0x3bbf03a83a2f28c6U, 0xbd08d8983cf91dcdU, 0xbc298de33bbda101U, 0x3cd75f8dbbe8ca7fU,
  0xbca37fb63c4da31dU, 0x3b774cedbca9bf4bU, 0xbd56f5fb3d42275aU, 0xbd0d92933c777070U,
  0xbd4a1d883c771da2U, 0x3d2a62c4bd22e091U, 0xbd1a88b7bd4e7884U, 0x3b97a312bced75c0U,
  0xbd522c4e3c73f06cU, 0xbc8377743c6f9fc0U, 0x3cd2560cbd30f02aU, 0xbd0394373c7685ddU,
  0xbd24d47f3cfc739eU, 0x3d07362d3bdba1a5U, 0x3c02e97dbd09732cU, 0x3d4a8711bd5ea8a1U,
  0x3c9774663d371becU, 0x3cbdf50fbcee6c77U, 0x3cd56af33cdb9d9aU, 0x3ce15015bc8ed1f2U,
  0xbd336844bd0bf6aeU, 0xbd5eda613cef7a09U, 0xbb6f537eba939884U, 0xbd17054a3d05b5e4U,
  0x3c67d91fbd406443U, 0xbd96ab1bbca476daU, 0xb9ed7f043ce6af9dU, 0xbcc04cebbd623cf2U,
  0xbd6bfc7dbd688261U, 0x3c6d71af3d0d3ee1U, 0xbd56a937bcdb1a08U, 0xbd4e1ecf3d3a6224U,
  0xbc93c03c3ca5eae1U, 0xbb9898d43ccbc479U, 0x3d2433463d315d76U, 0xbc974256bd5ecebcU,
  0xbd1f47cfbd0361b8U, 0xbd1d96f9bd31e0f2U, 0x3d0aa9c4bccbbeadU, 0xbcdff16c3c57685fU,
  0x3ce66770bd19b8b7U, 0xbd25fa933d3aa3f7U, 0x3d41e96fbbf054d6U, 0xbd1fcae7bd48752dU,
  0xbc3b14463b601a44U, 0x3ce167c7bcf075acU, 0x3c87e3803c9185beU, 0x3d2ebad0bcb4820bU,
  0x3cbbdfe33c853939U, 0xbc7277553bd5f68cU, 0xbca7810e3c2b57f0U, 0xbd63386fbc99994eU,
  0x3d03d08d3cc074efU, 0xbc0d077fbd404eefU, 0xbc77cbe4bd16e78cU, 0x39ea0d2cbcb20c67U,
  0xbbfd14e63d45f54cU, 0x3d1364b1bd22cf4fU, 0xbcaea77cbc610ab0U, 0x3bb9dcb2bc7bd18aU,
  0x3bd2dc783c482369U, 0x3d1375d03caf2ddbU, 0x3d1d9052baf45e40U, 0xbcc278b23c23a0d6U,
  0x3d3609553ca6a288U, 0xbd0417c1bd40690eU, 0xbb9880d53d312040U, 0x3c188361bd6c76c3U,
  0xbcaf595f3d00c932U, 0xbd4def6439e8c0d9U, 0xbd07280dbcfe1408U, 0x3d3b6a913ccaebebU,
  0x3c20822dbcc7fdf8U, 0xbcc4731a3b7346fdU, 0x3ca4d6213d1e83cdU, 0x3b52d5873a8d56afU,
  0xbd2acfe0bbdfb061U, 0xbd2c1f133d30ccc4U, 0x3cb70175bd5e808fU, 0xbc8d3a113b6209a0U,
  0xbc1cc0943d459a06U, 0x3d2d89ae3cae83d0U, 0x3c282838bcbf7bc7U, 0x3cd3eac5bd3425baU,
  0xbc813889bd57ec5bU, 0xbc22e5d3bd12f6fdU, 0xbd2c7b8e3c1656d5U, 0x3d34d931bc2eb6b9U,
  0xbc5a6e843ced228bU, 0xbafceb9d3c813657U, 0xbd3d3807bd5a6b02U, 0x3cceaeeaba3b4c56U,
  0xbcf5c62bbd6765fdU, 0x3cebba053cb74ac0U, 0xbd3316a93d46c5cbU, 0xba7f0662bb8fba3aU,
  0x3c9889423bbdf678U, 0xbd488d2b3c848051U, 0xbd159691bb863ce7U, 0xbc9066523d349536U,
  0x3c9753563d144990U, 0x3cd27390badd23d9U, 0xbd02df68bcb370a7U, 0x3d3927643ca1d6fcU,
  0xbc728d73bd4e5057U, 0x3c8c9fbfbcb7b5f8U, 0x3bcc22a1bd332038U, 0x3d14d26c3d4d26e1U,
  0xbc9c1982bbdbd212U, 0x3cec1fad3a6d6865U, 0xbbe3b22b3a39eb60U, 0x3d2a34ff3c59d91eU,
  0xbceba7e73d0c8183U, 0x3b8b2fcebc95433bU, 0xbd48f361bd2ef680U, 0xbd66453cbd03fb02U,
  0x3d0548a73c8cc039U, 0xbd1854d13c92b6d6U, 0xbb8fed10bce5f8d4U, 0xbd68f1583c1436ffU,
  0xbc8abd23bd309be5U, 0xbccfb479bd4961bdU, 0x3d514a26bd45ad36U, 0xbd301923bd66011eU,
  0xbd5afcfc3d11bc54U, 0x3c3df26cbbe7baafU, 0x3d41f73fbd315e89U, 0xbd0862edbd3f355cU,
  0xbd4b7cc9bcb47374U, 0xbd1a21d4bb178176U, 0x3cbce3e1bc8db433U, 0x3d270619bd537b85U,
  0x3d30bae7bcd5ba56U, 0x3d23d90d3d01aaf4U, 0xbd1f01ab3ce3db2dU, 0x3c819093bb8bc91aU,
  0x3d356c8fbd1c83d2U, 0x3c97c96d3c901868U, 0xbc8bc41e3d4349aaU, 0xbb82b930bc2e7387U,
  0xbcb0f8f03c9d8178U, 0xbc5bea2cbcbb88d1U, 0xbc56356dbd1b9bacU, 0xbd247fce3c83ea18U,
  0x3cd11ae6bd2805faU, 0x3d2d004dbbd81902U, 0x3d43116bbce95db8U, 0x3c8606093d22b39aU,
  0xbc0a98d1bd0e4deaU, 0x3c5c10533cf424fdU, 0xbcc9ec05bd34741aU, 0x3d0d431e3d034eb9U,
  0xbd4e6314bd05932eU, 0xbd053b543c02b8f9U, 0xbc7ce375bd2fb220U, 0xbd707da7bd3dc5bfU,
  0x3b9aa1133d0015b8U, 0x3d37a27b3bdecb7eU, 0x3cdd0e493bbbb6e5U, 0x3ba4ff5b3c674618U,
  0xbd23f38ebbdc4a24U, 0x3ba9c5f4bd59d0a1U, 0x3b2dc78c3d0dc16cU, 0xbd4b2c623d3cf001U,
  0xbc500b283d357b8dU, 0x3c892afcbd67db07U, 0x3d4cd2333bde5b90U, 0x3cc4f350bd1ba7abU,
  0xbc05df613d14a326U, 0xbd347c6b3bafba65U, 0xbc0530c7bce5a6fdU, 0xbbc1177bbccfb496U,
  0x3d0a209a3c687515U, 0xbce4d9b5bd356ba4U, 0xbc992493bcbf67b6U, 0x3ce677f6bcf0fd5eU,
  0x3c05691c3c72edfaU, 0xbd52ada63cc2d82bU, 0x3d0077f9bd2c2cb3U, 0xbd32154fbd68056eU,
  0xbd5376bfbd517db6U, 0xbd31672d3b34c329U, 0xbc84eeb53d057477U, 0x3b8bddf2bbf18a32U,
  0xbb11e60bbd69b6c4U, 0x3d1ba2a83ca618bbU, 0xbce7e2a6bd337a35U, 0x3d019092bc87e924U,
  0xbd4978393d294324U, 0x3c8ff17fbd044e9cU, 0xbc949c50bcd9bbb8U, 0xbc9bc19a3c8b479dU,
  0x3d05914abc3ce56fU, 0x3d137078bca32056U, 0xbd18ef45bd670504U, 0x3ca01d9ebd6170cdU,
  0x3cc35c543ce49d5eU, 0x3cbb3015bc807761U, 0x3cda128bbd1a3b6dU, 0x3c961febbd56eacdU,
  0xbd2cb4e7bd3a0520U, 0xbd4d59cebc615f9fU, 0x3b0cd67b3d0f24ceU, 0xbd6548363d4d2fb3U,
  0x3c8577f43d05a267U, 0x3cee764ebce784bcU, 0x3bdc4e7ebc83bc22U, 0x3d040cbb3bf0cb8dU,
  0x3c8f927ebb99465cU, 0xbcdc6c183d32d6b8U, 0xbd1e2a03bcebe50eU, 0x3d1ad221bd40b466U,
  0x38d40008bd34894eU, 0xbc35f68d3cd02f69U, 0x3cec8ac4bb969107U, 0x3c1c216b3c461a58U,
  0xbd69d0c4bd639906U, 0xbd130ac93cb1b298U, 0xbd63dca1bd3e6a93U, 0x3c4a10273ca31664U,
  0x3d1cddbabd451060U, 0x3c79c9373d00a867U, 0x394e78df3b29df90U, 0xbc1e27e4bd3866f7U,
  0xbd02a3623d232e6fU, 0xbc2136bcbd78e58dU, 0xbcc036c93c026a0fU, 0xbc58cde9bd0bd39bU,
  0xbc9f65dbbccd8efdU, 0xbd066143bd174bf3U, 0x3d19a49abca47efaU, 0xbd18fc41bd2e8c90U,
  0x3bc03bb73d1c476dU, 0xbd414ea63ce20e47U, 0xbce212993c49939cU, 0xbbcdd3013d208b84U,
  0x3d1b99e3bcca6961U, 0x3d372779bd442b0aU, 0xbd0db5a43cc9f560U, 0xbd4dade5bb5e28f7U,
  0xbc2b8f763cee17a4U, 0xbd3fc85cbc3f809fU, 0xbc2cea43bc9238aaU, 0xbd7067ad3d14a1d3U,
  0x3d48b69dbbcf1257U, 0xbd5940c33d17005cU, 0xbcf76f93bc1ed4c3U, 0xba8a410cbd4f6c92U,
  0x3d2984f7bd503f28U, 0xbb1a2d7a3c2a1471U, 0xbb2e74813cc412e0U, 0xbc800e5d3c97311dU,
  0x3c2a36183d0fda07U, 0xbcb69679bc67e119U, 0x3cae035fbd0fff62U, 0x3b5e1f8e3ad9e838U,
  0x3d3424d83d18b5e8U, 0x3c455505bc262ac8U, 0x3b2afc83bc4715a4U, 0xbd2d68623cfa17a3U,
  0xbcee2e72bd4ac746U, 0x3bc1d02fbca30d25U, 0x3b6c6e26bd40b1d7U, 0x3d1e5717bcf61269U,
  0xbd2741c7bd1e47c5U, 0xbc7f55f03b9904e2U, 0xbd1284b9bd6196ecU, 0x3d2b18cc3d1a2694U,
  0xbcf0ae23bd4cc5b6U, 0xbcdf177ebd0dbd32U, 0xbd3380b93c781614U, 0xbc32c545bcafe01aU,
  0xbc8ff13a3cf03702U, 0x3bba2eaabd7eac36U, 0x3d0a262d3d31bbd9U, 0xbcf9fc39bb207122U,
  0xbd6dc3153cc56164U, 0xbd3507633d0b457cU, 0xbd6f5dc4bc9746a6U, 0xbd727505bc0ce38aU,
  0x3d049e773b24e757U, 0xbcd39e3d3bf72e6dU, 0x3d4773acbc7ba6f9U, 0x3d20928a3c92786aU,
  0x3cedacc6bd655dfcU, 0x3c3bc19ebd0df11dU, 0x3c40ac69bd1adbbcU, 0x3c86f2b03b13410bU,
  0xbcc52d743d3190e5U, 0x3d14337dbd2a9a10U, 0x3c3769d63d2b1381U, 0xbc1715c03c7cb185U,
  0xbd27516abcc721bbU, 0xb9afc210ba17e430U, 0xbb17a8b43d27afceU, 0xbd62d8773d4aac48U,
  0x3cf82065bc528aa4U, 0xbc77cd3c3d1aecd0U, 0x3b0a17da3b31b5b7U, 0x3aa09f80bc060c35U,
  0xbc5d98153d05a70fU, 0xbca287f5bcb3062dU, 0xbca0bf1dbc5525f0U, 0xba4e2d363d278944U,
  0xbd4f3db4bd6c9045U, 0xbd4afaf33cac4d40U, 0xbd178ac9bd67bde3U, 0x3c6c2cc7bd68564fU,
  0xbd114a07bd358ac8U, 0xbd07a8b93d05ec5fU, 0xbd4d6b083c6c8c0eU, 0xbd0e60d5bc298886U,
  0xbc8eff20bc95fdfaU, 0xbd7a110abcaa43acU, 0xbd61c19e3ca75758U, 0xbd5e9decbc9b1547U,
  0xbb93fc38bc478092U, 0xbce08227bc7994a1U, 0xbb42b332bd0f96c0U, 0x3cc8d4b4bc13c998U,
  0x3c2445a8bbe6e5cfU, 0xbcbe13bc3d0afd31U, 0xbb0c6bb6bd1120ceU, 0xbb2a48f8bc9afe31U,
  0x3c7e0e1bbd4992b2U, 0xbc0ead6ebd90177aU, 0xbb2c21c1bd13d375U, 0xbb99363e3d269069U,
  0x3c367d453c919227U, 0xbd353cb3bc597975U, 0xbbcb90dabce2c280U, 0xbcced35bbcd4810bU,
  0xbd09d3aa3d39ef79U, 0xbccc4b083a1cba52U, 0xbd3a841e3d45ab05U, 0x3d37bf4ebd3657d3U,
  0x3c51c2cc3d072955U, 0x3d39ac5dbce84d2eU, 0xbc220298bba90104U, 0x3cfe24113a89672fU,
  0xbce9277d3d14c94dU, 0x3d344183bcd707eeU, 0xbcc391bf3d1e8c9eU, 0xbd2682a0bcc2b2f7U,
  0x3cc516e43c3abd08U, 0x3aa5ee0ebca5d0baU, 0x3cafec0b3d2e9a93U, 0xbd552876bd63427dU,
  0x3a731c163ae72178U, 0xbca6821cbc3b6e75U, 0x3a239294bcad6a47U, 0x3ca206e0bd2d4d91U,
  0x3d2b1ca5bb9a6bf5U, 0xbcb728eabaa3114bU, 0x3c8a5d863c260bd2U, 0xba02e7c1bc3f1d66U,
  0x3d1959b6bca06fabU, 0xbd083b213c7c28ecU, 0xbd159bf5bd0cd56fU, 0xbd20ef1fbc805f5aU,
  0x3bed0d41bcbecb80U, 0xbd37289bbd6a84eeU, 0xbd5d17763d2b234dU, 0x3cb36b8cbd01d7ebU,
  0xbc86bf6cbd2a9889U, 0x3bf9e7183d377db5U, 0xbd21e9fe3c317ad6U, 0xbd4b4b783c3997b6U,
  0x3c5cf4693ca1b604U, 0xbc7cead5bd9b97c2U, 0x3d11df6e3b3276f3U, 0xbcdee3343ac8940cU,
  0xbc4cb8ad3c882035U, 0x3caca7e53d1248d7U, 0x3ca68f6bbce50bddU, 0xbbd99a623d3b369cU,
  0x3c982526bcf94e23U, 0xbd2ce5373c9a9ff0U, 0xbbecbd5dbb82f126U, 0x3d3018cebc8d0673U,
  0x3d0d0de93cad8cd8U, 0x3cbe86a3bd4b26d8U, 0xbd0786853c5ad95aU, 0xbc0d02573d053637U,
  0xbb25170cbc7e8ff2U, 0xbbdcf22bbbb69aa8U, 0x3d1daf77bd690ee0U, 0xbc177f8e3d20b311U,
  0x3d46a75cbcfc92a5U, 0xbd7051a6bd3353a0U, 0xbd452ea0bd1f326aU, 0xbca6ea87bb126f79U,
  0x3d35a288bbfb2834U, 0xbcd2b697bb97a85fU, 0xbce9e107bd32f63aU, 0xbb9e3389bd4e1414U,
  0xbd6ae97abd62dea7U, 0xbd1d9f23bc947311U, 0x3b67ecab3ccfc356U, 0xbd130c35b9732350U,
  0x3d4ca56cbbf8557fU, 0xbca830533caed523U, 0xbd2a1ba83cba2ef7U, 0xbca3f99d3d34f2e2U,
  0x3d3d7f22b807b26fU, 0x3c7da9583c098638U, 0x3ce72666bd32576dU, 0x3bef392b3d429b03U,
  0x3cab2a5d3d1b8806U, 0xb8d4da543d211ca9U, 0xbd6e721dbd3e9517U, 0x3cfb6da4b9c8ec20U,
  0x3a55a24c3bb2523bU, 0xbca48245bd047d2dU, 0x3d07d089bd2460f7U, 0x3a7b8cd53c3c8b8dU,
  0x3cc5d6533d0df318U, 0x3d303056bd3f7980U, 0x3cacf7083d024092U, 0xbd22fccfbcac0acdU,
  0xbd0b0e92bcde9c41U, 0xbd6fdbb3bc807667U, 0x3cc863e8ba62e8dcU, 0xbd29132bbc97aebdU,
  0x3d1294ca3d0fed3dU, 0xbc23ec743ce02b50U, 0xbd2ecbed3ca0737cU, 0x3d1915fe3c9396f2U,
  0x3cfcb2dfbd58c9bfU, 0xbc57d2143b55a99cU, 0xbc2684fa3cf36a5eU, 0xbc74e306bd732695U,
  0xbb4229ccbd1c2f67U, 0x3c544a5a3c46b2e0U, 0x3cfeceafbc0c72dcU, 0xbd23c7823c03e3d6U,
  0x3d29ec05bc1f2605U, 0x3d29f77c3c42fd3dU, 0xbd62cd38bd792142U, 0xbd224a61bd17cf9bU,
  0xbcfe40e6ba2e08b3U, 0xbcc1b405bb4a65c1U, 0x3cf86b2a3d03953eU, 0x3d1229e3bd1a3584U,
  0x3d10120abd3fee55U, 0xbd14cba83d5f25a2U, 0xbb3d34453d2a56bfU, 0x3c25fa573c66e351U,
  0xbd2b881bbd52d83dU, 0xbd32121eb9c62fe4U, 0x39b8d7703d2157e8U, 0x3d2245b33cc26a04U,
  0x3d3d1294bc9397c1U, 0x3ca8c602bd71e59dU, 0xbce218803c0edc19U, 0xbd1430dabc8358c2U,
  0xbb82f4d1bcb23fe5U, 0xbd2b77ee3d01affcU, 0x3d29fa493d458323U, 0xbb88897b3c581d44U,
  0x3b1f3513bb7a0925U, 0xbd2a95673d089f6fU, 0x3d3841d33d14fdfaU, 0x3cba66f93d135779U,
  0xbca596e23d4a3867U, 0x3cd8d97fbc6c3ea2U, 0x3c6aa507bcea3cc6U, 0xbcd3601a3c8b172cU,
  0xbd26e4cc3d2dd12dU, 0x3c624536b7e22628U, 0xb8811d37bc0a67feU, 0xbd4fb2473cc66fc4U,
  0xbd57b174bb954cb0U, 0x3c9ae0893d38aec7U, 0x3ceac2e4bc482bffU, 0xbb60272d3caa9caaU,
  0x3cb6592bbcb494ddU, 0x3cd08d0bb9e201beU, 0x3b325ed13c8601d5U, 0x3d202e1b3c6158dcU,
  0xbc6477893d34c075U, 0xbd449123bd303ddbU, 0xbd5195d83d07fb12U, 0x3cac4a1d3d261e9aU,
  0x3d402762bb61f9acU, 0xbd7c9c993cd11899U, 0xbd12a0923c728227U, 0x3d18e6c3bc6ad77cU,
  0xbd5658e53cfab9eeU, 0xbd73ff4fbc3fba31U, 0xbd3a2db5bd5913aaU, 0x3c36a5f93c0020c1U,
  0xbcc1e672bcd1a75eU, 0x3cfe48f6bd23d5f4U, 0x3d46a2923cca8f9aU, 0xbbd20ed13c98cb47U,
  0x3d1eb25dbaa66b96U, 0xbd12534b3c3508b0U, 0xbd0cbe82bd696e61U, 0xbcff5bfdbc8242a0U,
  0xbd0cf0313c400a8eU, 0x3cd4625dbc2f705dU, 0x3c849323bd103c35U, 0xbcc32cc2bcb1f5f0U,
  0x3c5841b73d02b2daU, 0xbd4af0dbbbb6c438U, 0xbd4e7b76bc6c9b13U, 0x3b6ce1c0bc957df6U,
  0xbd769b50bc373250U, 0xbd3fb9e23c4e3ca2U, 0x3bbfed28bc276847U, 0xbd1143443c792cf0U,
  0x3d049a063b76067dU, 0x3d38ad61bcce99a2U, 0x3cfb8139bd6efd21U, 0xbd2ed5713d35035bU,
  0x3d0a32293d354de0U, 0xbbd798d4bcb03a03U, 0xbca5989d3cc1190bU, 0x3d29c2693cf6a955U,
  0xbd52bff2bd25e955U, 0xbbcf0ac83bab04cbU, 0xbd67c1f6bd67fe71U, 0xbd66f97e3d32a8c8U,
  0x3cfb1c233d173baeU, 0xbc22ad783cb2ff60U, 0xbcb26fd6bd0829caU, 0x3b0bffb83c47bea6U,
  0x3c11ac74bd3ffec3U, 0x3d03ea69bd9a02faU, 0xbc652ce1bd24f835U, 0x3d2d8655bc2e5f78U,
  0x3d435114bc85a0d9U, 0x3d201481bbd6d155U, 0xbd4e47b33c611abbU, 0xbcb3765d3b67d244U,
  0x3be8e1abbc43f4e1U, 0xbc14a1873b47bd89U, 0xbbb958873d26d13fU, 0xbc5415d9bcef47a2U,
  0x3c624fa33d0079cbU, 0xbc1a0ad2bd36fa4eU, 0xbd3f510a3d1144fbU, 0x3d03a2cd3c02b8c0U,
  0xbcb8074fbd3a67feU, 0x3ce95492bd86f02bU, 0xbacf4e9c3a8cdeedU, 0xbc9f857a3d114900U,
  0x3c182dc5bd142841U, 0x3d2d58c5bbb20aacU, 0x3c2d7a473c36e096U, 0x3cf7d4df3cbc82ebU,
  0x3d430131bd1d1c78U, 0xbd553222bc3268a9U, 0xbd568c6ebce194a0U, 0x3d14bf88bd522a62U,
  0xbc812bd93d273e2bU, 0xbd0a1bcb3ca5e132U, 0xbd46e1b43cdc5e9eU, 0x3ce399333ca01296U,
  0xbc82bd9a3c9a13dfU, 0xbcf39a38bd2b73a8U, 0x3c0c206bbd0f9706U, 0xbc462540bd0f259cU,
  0xbd6943e73ca56a50U, 0x3d478cc93cdad5feU, 0xbd3224993c642372U, 0xbd02ad513c306bc2U,
  0xbc0317603ca6dfc4U, 0x3b86f6563cca5558U, 0x3bb971ffbd05d40fU, 0xbd1315bd3c405b61U,
  0xbd8b33c3bceac1c4U, 0xbd6e779bbc855e3bU, 0xbd3303303d4a44c4U, 0x3cea9185bc56f74aU,
  0x3d27aa343c370173U, 0x3c5f55b8ba57feeeU, 0x3d269bd2bc87b9f5U, 0x3c53122abd144ebbU,
  0x3cea8992bb887bb9U, 0x3d1d17bb3ca885eeU, 0x3bec6edbbd2fe016U, 0xbd19c0ce3bb4354bU,
  0x3cd087263c54e63aU, 0x38fa777a3c7ace29U, 0x3b621a31bcd5804eU, 0xbd5eda5f3d15490fU,
  0xba32aeb93c753223U, 0xbd2f8d83bbf1c2cdU, 0xbd3a77413d3e9bb5U, 0x3bc1b657bc2e49f6U,
  0xbd4a0f9a3c0608faU, 0xbd151b16bd443110U, 0xbd2a2135bd64b969U, 0xbc7d8cc8bd691935U,
  0xbd55967dbac5bca9U, 0x3b183000bd566fc4U, 0x3d257209bceadf86U, 0xbd24cefcbba58477U,
  0xbd5f80593cabc3d7U, 0xbd5a7003b9f8dd5eU, 0xbcf3e26b3cf9d22aU, 0x3cde9dbd3d4dd26aU,
  0x3d0bdfcebd46e70bU, 0xbc5308763ca917fdU, 0xbcd407cbbc4c8e79U, 0x3d3297d2bb382214U,
  0x3cb366043c28f2edU, 0x3d3f9c6fbc0f20deU, 0x3cdc60a13d366866U, 0x3c3c1fab3c13f0c9U,
  0xbbbb39b2bd102b15U, 0xbb79c12dbb6065aaU, 0xbd1cad933ca7e873U, 0x3c31184d3d3ef2e7U,
  0x3d129d393c5159a8U, 0xbc4dbbc73c91b43dU, 0xbd3959dabd2c10b8U, 0xbae1b2753c088e94U,
  0x3d1ca6913d22692dU, 0xbc1d77f03c76956aU, 0xbafa163bbd06890aU, 0x3c89b9823c244b85U,
  0xbd44e2863caf0fccU, 0xbd392ab13cb254a5U, 0x3c9e6d263d23a2aeU, 0x3ce001103ca6acd5U,
  0xbd5d50433cd85eecU, 0xbbe4c78d3c3159ddU, 0xbd39924ebd1fcca6U, 0x3befc84d3d0b7a8fU,
  0x3d316111bbb5d0abU, 0xbcd3b3cdbd2049ebU, 0x3d3f278f3c827e9cU, 0xbb0c1034bd41f4d8U,
  0x3cff9314bd4524f4U, 0x3cffe0013982cd5eU, 0x3bd8aa703ce82765U, 0x3c8d93d0bcba3a71U,
  0x3cbba22cbcd76936U, 0x3d6c2ea3bd332879U, 0x3d1588953d271c65U, 0xbd284cbe3d039516U,
  0xbd207f1e3b7c00a5U, 0xbd416b443a752918U, 0x3cf1c3843b0649f8U, 0x3d0c4fa3bb96f42bU,
  0xbd5d9a123cc6011dU, 0xbc9118e43d15f7e8U, 0xbb0a9ff83ba7f577U, 0xbcf6403c3d2a690eU,
  0x3c222fa33d0dfdabU, 0xbd479121bbcf1900U, 0x3c4e6c673a15bcf9U, 0xbd1324543d12840bU,
  0xbce7db7bbbed428fU, 0xbcc7a4813c56eb3fU, 0x3ccfeecebb2477ebU, 0xbd5b1e393b98cd6cU,
  0x3d3e3a26bd2b04e2U, 0x3badff1cbc92ab7aU, 0xbc13ed75bd07b8acU, 0x3d31433e3cf09c63U,
  0xbd3099e83d0d8ef0U, 0x3cd9d196bd02db5cU, 0xbd0d639dbc7032f3U, 0xbd667e7ebd68f0e9U,
  0xbd083ac2bd2b7ad0U, 0x3c865ecbbca04feeU, 0xbd2e2e43bbc41646U, 0x3c974e0f3d13ca1dU,
  0x3c38cd25ba7e7074U, 0xbd394fcabc0b79daU, 0x3d1e44af3b96209cU, 0xbd599dcebc7f9a61U,
  0xbd0f06f2bc7a2d18U, 0xbd353eca3d0b310cU, 0x3c32235d3c90368dU, 0xbbffaf5fbb136df1U,
  0x3cd66f7abca0f719U, 0x3ca2cc6abd02edd7U, 0xbbf223b03b92bc3dU, 0x3ca1dd71bd0f9c88U,
  0xbd44ce193cf96196U, 0x3c94fee1bd2d1b76U, 0x3d3b83153ceb336aU, 0x3c0d64eabcfc723cU,
  0xbd56eb763d3346b6U, 0x3cf38414bd9290fbU, 0x3d449addbd57367fU, 0x3cf3eb6e3cb5e04aU,
  0x3cccb75fbd080f50U, 0xbd4cf6ddbd05ff3aU, 0xbaf438c6bcaee4bfU, 0xbbb6310d3b5f3c88U,
  0x3c5fc6283cee36d5U, 0xbbb730b9bd420433U, 0x3c34de0ebc9e0169U, 0x3d25c385bcc1d6a7U,
  0xbd6b8d2cbd472c9dU, 0xbd2e2a07bca175ddU, 0x3c8270393cb554adU, 0x3ccaaa3d3cded7d7U,
  0xbd38557fbcead70cU, 0x3c3ed5c2bd3c1509U, 0xbc9f5c9e3cc59bf2U, 0xbd74184d3cba69f8U,
  0xbd57b36d3c87e469U, 0x3cbb30b8bd00dc75U, 0x39a03b973ca3163cU, 0x3b0f2328bd389d8cU,
  0xbcf979f9bd1f8b9dU, 0xbd5ca0453c0d6e0cU, 0x3c96a1bcbc8e7e39U, 0x3c0efc453d1265beU,
  0xbd4796bc3c43564eU, 0xbd315faabd44dd0aU, 0x3cb69675bc25d92bU, 0xbca0c9dd3cf92cd1U,
  0x3d333db8bc5a3846U, 0xbc05f0f33ca6e465U, 0x3d49c0243d346ee3U, 0xbd8698adbd4c1bdfU,
  0xbcbbc1323d1b62cbU, 0xbcd81e35bc8c54f5U, 0x3c59380ebd02fec5U, 0xbd69d5cd3b226d2aU,
  0x3b52f4493c50f4a4U, 0x3d25de85bc90703aU, 0xbcf52b3dbb968946U, 0xbd303b99bd21b9daU,
  0x3ca20f7dbb6d85abU, 0x3d1f4fc1bd58773dU, 0x3d0c5289bc2ea27dU, 0x3cee5ca1bcb6ba6fU,
  0xbc6dfae4bd66b020U, 0x3cb106873ba94207U, 0x3d3477553cefa125U, 0xbcd8caf4bd682991U,
  0x3b42170dbc22cfdfU, 0xbd24b1863d1bffabU, 0xbce0cb5fbc882ffdU, 0xbd9308ff3ceb98deU,
  0xbcd5202ebcd56935U, 0xbbbb9c74bcb6b5eaU, 0x3c9dd870bd1f3d00U, 0x3d3e2983bbdd54a9U,
  0xbd548629bce7a124U, 0x3cab20fd3d4bfc03U, 0xbd1ec848bd28c878U, 0x3d2f12e0bd3ec4d1U,
  0x3c43627f3d32a99dU, 0x3ce76b5ebd49a11cU, 0x3d4e4e24bb697b4cU, 0xbd4066943d2105e0U,
  0xbc786c53bccba9aaU, 0x3d32f1cf3cad3b3dU, 0xbd42d5c5bd141513U, 0x3c0c4168bb211d67U,
  0x3c591d23bd5906a9U, 0xbd71060fbd608447U, 0xbd0f7a0a3c9b98a4U, 0x3d2dd111bc303504U,
  0xbd271d893c2a026cU, 0xbd396ec2bd257dedU, 0x3c7058363cbf9c85U, 0x3d03e956bc944d66U,
  0x3d01d26a3d3caa22U, 0xbd676e003c39216aU, 0xbd00991e3d36bf9aU, 0xbd3b6654bce2d7ecU,
  0xbd301f19bc6168d7U, 0xba38bcd43c7ced04U, 0xbd2788f9bd30e3faU, 0xbd0db70a3b8d1f62U,
  0x3c8db6893d12ee54U, 0xbd4c89a0bc9e757bU, 0xbd1d5cf5bcad394eU, 0x3c956447bc5542d8U,
  0xbd8ecd923d3d58b2U, 0x3d0b3765bd24dcceU, 0xbcb679823cfb3197U, 0xbd1a759c3c02456aU,
  0x3b12b8d4bd151a1fU, 0xbd28191abcfca645U, 0x3bc62ffe3c177868U, 0x3d114fda3c56e33eU,
  0xba86b1223c6f1b3aU, 0x3bad6674bd8a1015U, 0x3d1e57603b806a2fU, 0x3b67d52abc9d5de1U,
  0xba5e23be3c5fc4baU, 0x3abbb4d43cd9abbbU, 0xbccbc522bd40b563U, 0x3ccf8d49bd3a037cU,
  0x3b773d10bbdd7c90U, 0xbd3d62e5b9541cd0U, 0xbd223d673d20a098U, 0x3b311ce93c520d33U,
  0x3c83908bbd1ad379U, 0xbd1ebaeebd54ae65U, 0x3d1c5bca3d14e938U, 0xbd2ee5be3cf07f79U,
  0x3d3260cb3d3c5d22U, 0xbd2a4c79bd831a01U, 0xbd4132b4ba1cf925U, 0x3d027a0c3cb2842eU,
  0xbd04d84e3c8da3afU, 0xbd70b4b1bcd18180U, 0xbc49caa5bd4541caU, 0xbd3503743bb2bd60U,
  0xbb9dfaeabc3d2a23U, 0x3ce1e739bc2d436eU, 0x3d3dd8683cf45edfU, 0xbc74fbfdbd0dd623U,
  0xbd0611053b9778f4U, 0xbca65d95bd771eb2U, 0x3a18b7ccbd4bbf52U, 0x3ba6c8dfbcfaa51cU,
  0x3cb19c3abc099df9U, 0x3d2c764b3cca6b7cU, 0xbc1ded9ebb9a358cU, 0xbc19e4c83d259521U,
  0xbcaa98973c9ee79fU, 0x3cc13e63bce8ad94U, 0xbcb28248bc719d58U, 0x3cd29685bd3d2f54U,
  0x3ce2b856bd45cdc5U, 0xbc1c13e3bd4ae727U, 0x3b8dd56abcdacaf8U, 0xbd3cd3dabd2871a6U,
  0xbc0e1628bbe9d1fcU, 0xbcb6304cbd4722daU, 0xbca49014bd2ddc30U, 0xbcc9c1073be40533U,
  0xbd65c4aebd3968beU, 0x3d1cc17ebc554b8dU, 0xbd43cd5f3c091ef5U, 0x3c1db588bc409e4aU,
  0xbd60d966bc0fb81eU, 0xbd1933cabd3b69adU, 0xbd7010913d0a8a07U, 0xbc5e5047bd0fa11aU,
  0xbab0b1e13c4a8c20U, 0x3cc80a573ccea616U, 0x3c8b0da6bc39496bU, 0x3c0b5cdd3c2865afU,
  0xbc81ee703d47f0eaU, 0xbb729894bb61e2f8U, 0xbb9041e6bafb25d8U, 0xbc8d2a873c395ebbU,
  0x3d1fe0103ccd5e1fU, 0xbd6bb1e3bd20532aU, 0xbd34b6f23ce5e718U, 0xbd6455d5bc700f13U,
  0x3ca01acabd4aa787U, 0x3c47a84e3c41f469U, 0xbcb62f1abd3009ddU, 0xbd2c2e31bd5d6410U,
  0xbcc06bb43d10fa5cU, 0xbc633e4dbd35d7bcU, 0x3d411cb4bcdff88dU, 0x3cbb6d933b7ed5dcU,
